"@@ 105530
: 44666
to 40207
the 39781
I 37644
you 30707
a 29716
and 25529
, 16858
is 16823
for 16168
", 15650
e@@ 15421
13@@ 15279
id@@ 14916
in 14897
ary@@ 14776
summ@@ 14761
dialogu@@ 14740
{ 14732
}@@ 14731
it 14230
of 12781
will 11912
" 11240
have 10675
8@@ 10575
be 10308
at 10029
on 9823
are 9419
but 9269
that 9167
with 9116
so 8137
my 7428
7@@ 7386
6@@ 7284
not 7092
I'm 7088
me 7049
was 6972
we 6939
i 6852
about 6554
just 5953
do 5921
can 5768
this 5669
like 5577
know 5330
her 5273
your 5138
what 5108
it's 5100
he 5003
don't 4979
some 4814
she 4443
going 4430
go 4391
.", 4364
as 4287
they 4233
get 4167
think 3986
from 3953
if 3882
has 3822
I'll 3717
see 3479
an 3363
all 3357
his 3335
You 3233
up 3190
or 3163
there 3126
need 3120
one 3060
no 2999
want 2999
would 2996
4@@ 2892
how 2867
time 2840
it@@ 2805
really 2784
9@@ 2775
good 2766
come 2745
got 2732
What 2707
out 2698
when 2628
3@@ 2565
should 2532
new 2517
him 2354
. 2352
1@@ 2328
But 2318
been 2258
did 2247
had 2243
take 2217
!" 2194
you@@ 2192
And 2162
u 2132
The 2125
\@@ 2103
can't 2079
too 2062
:)@@ 2061
? 2040
am 2038
meet 2016
It's 2004
them 1989
! 1931
back 1927
next 1924
last 1903
29@@ 1884
by 1880
It 1878
28@@ 1875
very 1869
more 1864
could 1848
make 1848
still 1840
He 1835
because 1818
How 1817
She 1774
So 1760
after 1750
me@@ 1747
any 1745
that's 1741
you're 1733
much 1699
:D@@ 1688
They 1686
sure 1672
We 1669
something 1662
I've 1657
work 1643
5@@ 1636
didn't 1633
." 1610
2@@ 1594
s@@ 1584
buy 1579
wants 1553
our 1543
were 1541
let 1505
then 1478
doesn't 1432
only 1431
16@@ 1417
... 1396
love 1387
tell 1363
maybe 1335
80@@ 1332
even 1325
Yeah, 1322
No 1321
that@@ 1310
talk 1291
30@@ 1279
s 1276
;)@@ 1267
give 1266
find 1241
now 1241
their 1228
Yes, 1227
call 1225
why 1225
now@@ 1223
where 1220
Do 1211
ok 1208
home 1207
That's 1198
always 1194
us 1194
coming 1187
also 1186
other 1178
people 1174
- 1169
Oh 1169
won't 1169
2", 1162
look 1121
Are 1116
<file_photo>@@ 1112
ask 1112
2 1109
who 1100
's 1090
try 1087
help 1076
ok, 1073
it. 1068
than 1067
over 1062
20@@ 1057
s, 1052
11@@ 1048
bring 1048
send 1044
ok@@ 1043
say 1041
Well, 1035
Not 1026
Have 1025
already 1024
15@@ 1023
right 1021
Just 1020
thought 1014
around 1013
too@@ 1011
up@@ 1009
know, 1007
better 1006
s. 1005
place 999
Hi 997
tomorrow 995
12@@ 994
he's 994
well 992
way 986
great 985
bit 972
-@@ 969
ing 969
feel 966
before 956
know@@ 948
nice 938
then@@ 933
never 932
told 931
10@@ 929
she's 926
seen 925
:) 922
in@@ 911
17@@ 901
hope 897
gonna 896
today@@ 887
i'm 886
first 885
Thank 883
wait 881
might 878
y@@ 873
Ok, 872
looking 869
lot 868
two 866
pick 864
day 856
which 851
went 849
S@@ 848
here 848
oh 842
yeah, 842
:P@@ 841
check 840
No, 831
18@@ 827
stay 824
its 821
yeah 821
it, 820
ing@@ 819
thanks 818
meeting 810
Is 809
anything 807
Can 806
doing 806
Maybe 805
long 799
If 795
guess 795
few 791
19@@ 790
sorry 787
needs 783
we're 783
:(@@ 782
27@@ 781
ed 781
little 781
on@@ 781
right@@ 781
5 779
I’m 775
one@@ 774
getting 773
wanted 768
party 759
yes, 758
3 757
tomorrow@@ 757
Did 755
there@@ 753
said 751
<file_gif>@@ 749
Good 748
time@@ 741
watch 741
a@@ 735
quite 733
do@@ 731
remember 730
My 728
Hey 724
off 718
happy 717
.. 716
5", 709
es 709
heard 709
sounds 709
same 707
I'd 702
mean 699
week 698
es@@ 697
\r\nTom: 696
many 694
does 693
"M@@ 690
T@@ 689
Thanks 689
best 689
er 684
join 681
work@@ 681
y 672
thinking 670
"D@@ 668
That 666
so@@ 666
what's 666
t@@ 663
Oh, 662
lol@@ 659
See 656
waiting 656
...@@ 654
old 654
Don't 652
er@@ 651
probably 651
<file_other>@@ 646
car 644
us@@ 641
"S@@ 639
out@@ 638
you, 638
yes 633
Why 630
found 626
A 625
is@@ 624
may 624
65@@ 622
such 621
good@@ 615
10 614
keep 614
4 612
.@@ 611
M@@ 611
wanna 611
When 610
them@@ 609
having 606
left 606
C@@ 604
B@@ 603
haven't 603
D@@ 602
s.", 601
read 599
<3@@ 597
thank 597
\r\nJohn: 596
we'll 595
another 593
looks 592
"R@@ 591
bought 591
bad 590
working 590
"L@@ 589
hear 589
start 589
things 589
e, 588
u@@ 588
?@@ 587
everything 587
visit 586
leave 585
big 584
re@@ 583
pretty 581
today 581
home@@ 580
guys 578
into 578
k@@ 578
him@@ 577
i'll 577
a, 576
"J@@ 575
please 574
Where 573
job 572
A@@ 569
made 569
book 568
ed@@ 566
her@@ 564
dont 563
K@@ 562
saw 561
again@@ 555
week@@ 555
well@@ 554
tonight@@ 553
This 552
no, 550
o 546
P@@ 544
e. 544
free 543
go@@ 543
able 542
actually 542
kind 542
"B@@ 540
let's 540
o@@ 540
play 539
sure@@ 539
y, 539
d@@ 532
there's 530
un@@ 530
nothing 529
e 528
thing 528
"K@@ 524
al@@ 520
don’t 520
14@@ 519
sent 519
:/@@ 518
days 517
"C@@ 516
day@@ 516
p@@ 516
thanks@@ 516
There 515
:D 513
Will 511
!! 507
care 507
put 507
these 506
someone 505
those 505
down 504
ing. 501
pay 498
idea 495
You're 492
25@@ 491
Yeah 491
R@@ 490
What's 490
most 490
course 489
must 488
G@@ 485
late 485
you'll 485
money 483
?\n@@ 482
eat 482
night 482
use 482
Sure, 481
believe 481
\r\nAnna: 480
each 479
why@@ 479
Hey, 478
\r\nKate: 478
sure, 478
every 476
In 474
school 474
"T@@ 472
...\r\n@@ 472
being 472
(@@ 471
F@@ 470
n@@ 470
L@@ 469
both 469
birthday 468
W@@ 467
to@@ 467
N@@ 465
end 465
Hi, 463
Yes 463
done 463
least 462
yet@@ 462
year 459
am@@ 456
you. 456
im 455
much@@ 455
whole 454
busy 453
m@@ 452
6 451
i@@ 449
watching 449
used 448
\r\nPeter: 447
me, 447
0@@ 445
"A@@ 444
soon 443
t 440
friends 439
great@@ 439
y. 439
E@@ 438
b@@ 437
took 437
what@@ 437
hey 436
\r\nMary: 435
forgot 433
show 432
g@@ 431
dinner 430
en@@ 430
:*@@ 429
it’s 428
all@@ 427
seems 427
a. 426
problem 426
idea@@ 425
this@@ 423
ing, 422
change 421
different 421
haha@@ 421
soon@@ 421
know. 419
phone 418
23@@ 416
since 415
Tom 414
XD@@ 414
later 414
night@@ 414
they're 414
until 413
24@@ 411
again 411
OK, 410
talking 410
called 409
here@@ 409
later@@ 409
problem@@ 409
without 409
45@@ 408
Friday 408
well, 408
90@@ 406
f@@ 406
hate 406
something@@ 406
asked 404
stop 404
"G@@ 403
es, 403
friend 402
miss 400
Me 396
!\r\n@@ 394
Christmas 393
taking 392
Of 391
a's 390
\r\nPaul: 388
almost 388
c@@ 388
h@@ 388
stuff 388
tomorrow. 388
together 387
fine 386
hard 386
no@@ 386
not@@ 386
supposed 386
trying 386
He's 385
.\n@@ 384
isn't 384
think@@ 383
couple 382
parents 382
Thanks@@ 381
back@@ 381
es. 381
guy 380
O@@ 378
thinks 378
while 378
\r\nMike: 377
food 377
l@@ 377
John 376
an@@ 376
st@@ 376
\r\nJane: 375
likes 375
way@@ 375
!!@@ 373
.\r\n@@ 372
xD@@ 372
al 371
weekend@@ 371
H@@ 370
40@@ 369
7 368
\r\nAlex: 367
years 367
21@@ 366
e.", 366
on, 366
…@@ 366
She's 365
house 365
family 364
w@@ 364
man@@ 363
through 363
Ok 362
order 362
ready 362
tickets 361
write 361
x@@ 360
r@@ 358
though@@ 358
it.", 357
LOL@@ 356
ar@@ 356
ate 356
1 355
?\r\n@@ 354
happened@@ 354
now, 354
wasn't 354
"N@@ 353
enough 353
now. 353
ic@@ 352
ly 352
year@@ 352
ever 351
planning 351
'@@ 349
or@@ 349
shopping 348
8 347
cannot 347
met 347
today. 347
Y@@ 346
over@@ 345
!!! 344
50@@ 344
\r\nJack: 344
\r\nSam: 344
during 344
office 344
fun 343
plans 343
ers 342
kids 342
\r\nMark: 341
el@@ 341
says 341
I@@ 340
anything@@ 340
ed. 340
see@@ 340
started 339
weekend 337
:@@ 336
everyone 336
22@@ 335
98@@ 334
I’ll 334
v@@ 334
k 333
that. 333
game 332
movie 332
"P@@ 331
away 330
yes@@ 330
you! 330
Sounds 329
car@@ 329
trip 329
came 328
e?\r\n@@ 328
come@@ 327
leaving 327
Well 326
once 326
red 326
:-)@@ 325
Saturday 325
hour 325
sorry@@ 325
Like 323
room 323
Ok@@ 322
wouldn't 322
ad@@ 321
really@@ 320
spend 320
coffee 319
name 319
sth 319
th@@ 319
New 318
own 318
"E@@ 317
"The 317
anyone 317
date 317
help@@ 317
text 317
time. 317
J@@ 316
Let's 316
We're 316
at@@ 315
couldn't 315
20 314
feeling 314
mean@@ 314
tried 314
Let 313
too, 313
!\n@@ 312
\r\nChris: 312
liked 311
wish 310
z@@ 310
\r\nJake: 309
\r\nMatt: 309
be@@ 309
lost 309
\r\nSarah: 308
drink 307
far 307
man 307
morning 307
tonight 307
haha 305
making 304
playing 304
till 303
as@@ 302
work. 301
All 300
\n@@ 300
else 300
thing@@ 300
half 299
)@@ 298
15 297
minutes 297
\r\nBen: 296
me. 296
cool 295
live 294
it! 293
Hello 292
y's 292
\r\nEmma: 291
off@@ 291
party@@ 291
afraid 290
hours 290
ri@@ 290
dad 289
a: 288
life 288
mum 288
Any 287
already@@ 287
lunch 287
70@@ 286
"Mar@@ 285
great, 285
him. 285
please@@ 285
sick 285
??@@ 284
about@@ 284
part 284
e.\r\n@@ 282
e: 282
plan 282
?\r\nTom: 281
For 281
\r\nAnn: 281
broke 281
99@@ 280
Al@@ 280
ation 280
gave 280
;) 279
Can't 279
ch@@ 278
you? 278
Could 277
mind 277
r 277
cool@@ 276
her. 276
too. 276
definitely 275
though 275
yesterday 275
mom 274
else@@ 273
finish 272
number 272
60@@ 271
good, 271
group 271
hasn't 271
thats 271
"H@@ 270
\r\nMaria: 270
s.\r\n@@ 270
talked 270
decided 268
that, 268
Peter 267
er. 267
girl 267
s! 267
understand 267
week. 267
/@@ 266
30 266
\r\nAdam: 266
better@@ 266
s? 266
you've 266
front 265
guys@@ 265
It’s 264
dress 264
ia 264
!@@ 263
\r\nEmily: 263
prepare 263
ur 263
d 262
ha@@ 262
sh@@ 262
43@@ 260
At 260
Sure 260
\r\nMonica: 260
bad@@ 260
class 260
happened 260
move 260
Which 259
\r\nJames: 259
\r\nL@@ 259
ed, 259
makes 258
sorry, 258
worry 258
Then 257
U@@ 257
\r\nMia: 257
er, 257
lol 257
?\r\nM@@ 256
Yes@@ 256
fun@@ 256
wear 256
gets 255
il@@ 255
nice@@ 255
sleep 255
Kate 254
morning@@ 254
Now 253
\r\nMax: 253
fine@@ 253
pizza 253
Sorry 252
\r\nAlice: 252
rather 252
\r\nTim: 251
drive 251
going@@ 251
weeks 251
yesterday@@ 251
As 250
\r\nLuke: 250
cause 250
forget 250
works 249
… 249
Mike 248
ago@@ 248
course@@ 247
j@@ 247
le@@ 247
\r\nJosh: 246
ill 246
second 246
Im 245
son 245
Mar@@ 244
Or 244
Should 244
\r\nS@@ 244
on: 244
\r\nDaniel: 243
\r\nDavid: 243
e's 243
less 243
pm 243
78@@ 242
early 242
glad 242
n 242
open 242
there. 242
tomorrow.", 241
V@@ 240
finally 240
gotta 240
for@@ 239
ie 239
ie: 239
interested 239
<file_photo> 238
\r\nGeorge: 238
okay 238
time, 238
.\r\nJohn: 237
U 237
\r\nLisa: 237
right, 237
wrong 236
?\r\nB@@ 235
Why@@ 235
Would 235
tired 235
Please 234
buying 234
ly@@ 234
say@@ 234
watched 234
Mary 233
\r\nHannah: 233
en 233
train 233
will@@ 233
\r\nLaura: 232
anyway@@ 232
enjoy 232
months 232
small 232
stuff@@ 232
\r\nM@@ 231
city 231
e? 231
?\r\nKate: 230
OK@@ 230
fine, 230
lot@@ 230
yeah@@ 230
.\r\nTom: 229
good. 229
00@@ 228
?\r\nC@@ 228
beer 228
case 228
days@@ 228
guys, 228
li@@ 228
test 228
yet. 228
\r\nD@@ 227
\r\nGreg: 227
ac@@ 227
asking 227
bus 227
’s 227
\r\nJacob: 226
evening 226
hi 226
place@@ 226
suggests 226
\r\nJenny: 225
mind@@ 225
66@@ 224
set 224
tonight. 224
76@@ 223
:( 223
?\r\nS@@ 223
video 223
weather 223
44@@ 222
\r\nJulia: 222
\r\nOlivia: 222
\r\nSue: 222
e! 222
es.", 222
fuck 222
y! 222
"F@@ 221
..@@ 221
an: 221
oh, 221
walk 221
?\r\nJohn: 220
On 220
Sure@@ 220
Wanna 220
ia: 220
near 220
sister 220
\r\nK@@ 219
\r\nLucy: 219
coming@@ 219
et@@ 219
it? 219
them. 219
borrow 218
okay@@ 218
there, 218
\r\nHarry: 217
dog 217
l 217
min@@ 217
totally 217
contact 216
important 216
ina: 216
s?\r\n@@ 216
;-)@@ 215
<3 215
\r\nMartha: 215
missed 215
?\r\nL@@ 214
We'll 214
\r\nKevin: 214
and@@ 214
close 214
man, 214
photo 214
right. 214
ya@@ 214
Okay, 213
\r\nJason: 213
\r\nJim: 213
agree 213
person 213
37@@ 212
between 212
69@@ 211
?\r\nAnna: 211
comes 211
girls 211
want@@ 211
course, 210
dis@@ 210
doing@@ 210
feels 210
guess@@ 210
ts 210
wait@@ 210
,@@ 209
\r\nSteve: 209
bit@@ 209
prefer 209
rest 209
y: 209
Come 208
exactly 208
finished 208
m 208
p 208
cant 207
co@@ 207
invited 207
job@@ 207
Hope 206
Z@@ 206
ation@@ 206
se@@ 206
seeing 205
so, 205
xd@@ 205
No@@ 204
end@@ 204
haha, 204
project 204
wine 204
9 203
\r\nJoe: 203
\r\nRob: 203
a.", 203
beautiful 203
catch 203
di@@ 203
g 203
hahaha@@ 203
knows 203
luck 203
more@@ 203
ro@@ 203
school@@ 203
somewhere 203
300@@ 202
34@@ 202
39@@ 202
?\r\nD@@ 202
\r\nJ@@ 202
baby 202
home. 202
online 202
three 202
you?\r\n@@ 202
Who 201
month 201
mother 200
staying 200
Mark 199
Sure. 199
\r\nFrank: 199
ab@@ 199
choose 199
im@@ 199
real 199
35@@ 198
knew 198
shit 198
ted 198
together@@ 198
?\r\nMike: 197
Paul 197
asks 197
evening@@ 197
flight 197
worried 197
Ok. 196
easy 196
h 196
hey, 196
what? 196
!!\r\n@@ 195
?? 195
Anna 195
anymore@@ 195
fine. 195
ya 195
They're 194
\r\nAndy: 194
\r\nKim: 194
\r\nSusan: 194
concert 194
wedding 194
Yeah. 193
\r\nHenry: 193
amazing 193
company 193
perfect 193
) 192
<file_video>@@ 192
\r\nAshley: 192
\r\nR@@ 192
house@@ 192
invite 192
point 192
saying 192
well. 192
77@@ 191
There's 191
black 191
fucking 191
myself 191
ones 191
problems 191
restaurant 191
worth 191
y.", 191
88@@ 190
Jack 190
\r\nRobert: 190
cool, 190
goes 190
hair 190
her.", 190
i've 190
interesting 190
it?\r\n@@ 190
news 190
recommends 190
running 190
sends 190
xx@@ 190
38@@ 189
?\r\nMary: 189
Chris 189
Yes. 189
classes 189
is, 189
up, 189
Tell 188
forward 188
girl@@ 188
hi@@ 188
per 188
shop 188
😊@@ 188
' 187
Your 187
\r\nDan: 187
class@@ 187
cold 187
"Tom: 186
33@@ 186
So, 186
\r\nC@@ 186
boss 186
ice 186
photos 186
problem. 186
times 186
usually 186
yet 186
\r\nIan: 185
\r\nNick: 185
can’t 185
discuss 185
ine 185
\r\nEva: 184
bed 184
decide 184
en: 184
work, 184
he'll 183
lo@@ 183
longer 183
looked 183
ok. 183
sp@@ 183
t, 183
!!!\r\n@@ 182
\r\nB@@ 182
available 182
ir@@ 182
Take 181
Very 181
X@@ 181
\r\nAmy: 181
best@@ 181
minutes@@ 181
poor 181
reading 181
share 181
you'd 181
...\n@@ 180
?\r\nJ@@ 180
?\r\nK@@ 180
Sorry, 180
ol@@ 180
paid 180
there?\r\n@@ 180
email 179
loves 179
up. 179
we've 179
!\r\nM@@ 178
due 178
high 178
om@@ 178
stuck 178
Haha 177
Jo@@ 177
One 177
book@@ 177
booked 177
ent@@ 177
ers@@ 177
long@@ 177
main 177
yet, 177
\r\nAnne: 176
\r\nMartin: 176
did@@ 176
i: 176
recommend 176
😂@@ 176
?\r\nMark: 175
cinema 175
funny 175
grab 175
so. 175
special 175
!!!@@ 174
"John: 174
exactly@@ 174
great! 174
hour@@ 174
kinda 174
minutes.", 174
money@@ 174
one, 174
?\r\nR@@ 173
I’ve 173
expensive 173
hahaha 173
late@@ 173
month@@ 173
moved 173
s: 173
t. 173
under 173
weekend. 173
Love 172
\r\nT@@ 172
ah@@ 172
cook 172
drop 172
mine 172
mo@@ 172
night. 172
offer 172
ter@@ 172
then. 172
turn 172
How's 171
ago 171
ah 171
bro@@ 171
people@@ 171
who's 171
worry, 171
"Jo@@ 170
?\r\nPeter: 170
Hey@@ 170
\r\nHelen: 170
cat 170
deal 170
exam 170
seem 170
shit@@ 170
town 170
?! 169
el 169
he@@ 169
life@@ 169
lovely 169
.\r\nB@@ 168
\r\nAmanda: 168
\r\nRachel: 168
do, 168
ent 168
him.", 168
need@@ 168
super 168
55@@ 167
:P 167
?\r\nChris: 167
English 167
day. 167
picture 167
?\r\nT@@ 166
St@@ 166
amazing@@ 166
aren't 166
driving 166
gift 166
se 166
sort 166
"Al@@ 165
.\r\nM@@ 165
\r\nRose: 165
an, 165
full 165
on. 165
perfect@@ 165
run 165
season 165
Hi@@ 164
\r\nAndrew: 164
brother 164
care@@ 164
here, 164
one. 164
today, 164
writing 164
yesterday. 164
\r\nBrian: 163
\r\nKaren: 163
\r\nNoah: 163
down@@ 163
instead 163
plan@@ 163
team 163
x 163
\r\nLiam: 162
\r\nNancy: 162
d, 162
lots 162
sometimes 162
using 162
.\r\nL@@ 161
.\r\nS@@ 161
?\r\nJane: 161
Car@@ 161
Great, 161
Thanks, 161
\r\nKelly: 161
dinner@@ 161
en, 161
meeting@@ 161
problem, 161
sending 161
spent 161
stupid 161
*@@ 160
Sunday 160
What@@ 160
\r\nRyan: 160
arrive 160
before@@ 160
difficult 160
friend@@ 160
ur@@ 160
you!@@ 160
!\r\nD@@ 159
?\r\nG@@ 159
?\r\nSam: 159
\r\nDiana: 159
bet 159
do. 159
qu@@ 159
side 159
.\r\nMary: 158
Sam 158
\r\nTina: 158
away@@ 158
break 158
crazy 158
don@@ 158
either 158
takes 158
yourself 158
\r\nJeff: 157
sound 157
ting 157
Anyway, 156
\nD@@ 156
\r\nCharles: 156
everything@@ 156
listen 156
pm. 156
then, 156
"Kate: 155
.\r\nMike: 155
Got 155
\r\nMichael: 155
ated 155
you’re 155
"Tom 154
No. 154
\r\nBill: 154
\r\nJessica: 154
business 154
checked 154
didn’t 154
extra 154
games 154
hey@@ 154
pictures 154
wondering 154
87@@ 153
?\r\nAlex: 153
After 153
Thursday 153
\r\nLucas: 153
\r\nTony: 153
angry 153
can@@ 153
ee@@ 153
favourite 153
les 153
os@@ 153
song 153
water 153
100@@ 152
Great! 152
\r\nMom: 152
books 152
gr@@ 152
moving 152
room@@ 152
she'll 152
Alex 151
aw@@ 151
fix 151
home, 151
ly, 151
music 151
o: 151
ter 151
tonight.", 151
\r\nLinda: 150
\r\nPatricia: 150
finds 150
first@@ 150
pass 150
true 150
way, 150
His 149
\r\nPatrick: 149
blue 149
d. 149
excited 149
list 149
luck@@ 149
manage 149
minutes. 149
out. 149
outside 149
thanks, 149
time?\r\n@@ 149
Nothing 148
\r\nZoe: 148
changed 148
especially 148
him, 148
learn 148
speak 148
study 148
taken 148
Jane 147
ge@@ 147
great. 147
party. 147
pm@@ 147
post 147
see. 147
short 147
tomorrow, 147
world 147
Ben 146
OK. 146
\nM@@ 146
c 146
doctor 146
present 146
!\r\nS@@ 145
Monday 145
To 145
With 145
\nB@@ 145
alone 145
cheap 145
gym 145
holiday 145
huge 145
idea, 145
mar@@ 145
too! 145
!\r\nL@@ 144
12 144
James 144
\r\nVictoria: 144
\r\nWill: 144
ag@@ 144
chance 144
drinks 144
el: 144
go, 144
hell 144
lunch@@ 144
.\r\nD@@ 143
\r\nEric: 143
\r\nP@@ 143
children 143
drunk 143
ea@@ 143
head 143
it.\r\n@@ 143
loved 143
save 143
telling 143
they'll 143
ti@@ 143
week, 143
year. 143
\nKate: 142
\nTom: 142
ana: 142
appreciate 142
her, 142
le 142
means 142
possible 142
sure. 142
talk@@ 142
that’s 142
Because 141
Yeah@@ 141
You'll 141
\r\nMegan: 141
ak@@ 141
etc@@ 141
not, 141
notes 141
?\r\nJack: 140
Friday@@ 140
\r\nBetty: 140
\r\nOscar: 140
bed@@ 140
really? 140
shouldn't 140
surprise 140
.\r\nPeter: 139
David 139
Does 139
\r\nGina: 139
ask@@ 139
est@@ 139
food@@ 139
here. 139
link 139
message 139
starts 139
try@@ 139
\r\nLeo: 138
apartment 138
ating 138
ay@@ 138
father 138
time.\r\n@@ 138
worry@@ 138
?\r\nJames: 137
Okay 137
\r\nChloe: 137
\r\nSara: 137
b 137
ed.", 137
ina 137
mean, 137
?\r\nBen: 136
\r\nGrace: 136
age 136
ap@@ 136
app@@ 136
details 136
est 136
ha 136
nice, 136
other@@ 136
serious 136
trust 136
z 136
?\r\nA@@ 135
Harry 135
awesome@@ 135
bu@@ 135
ds 135
funny@@ 135
gone 135
ing! 135
much, 135
oo@@ 135
place. 135
really, 135
them, 135
true@@ 135
ut@@ 135
white 135
\r\nE@@ 134
expect 134
it'll 134
play@@ 134
"I@@ 133
$@@ 133
....@@ 133
Ann 133
Mr. 133
\r\nEthan: 133
al, 133
ant@@ 133
in. 133
ks@@ 133
phone@@ 133
um@@ 133
wife 133
.\r\nMark: 132
\r\nCharlie: 132
appointment 132
con@@ 132
em@@ 132
flat 132
how's 132
imagine 132
ready@@ 132
stand 132
starting 132
"An@@ 131
.\r\nC@@ 131
Bye@@ 131
Great 131
Hi! 131
answer 131
bo@@ 131
boyfriend 131
busy@@ 131
cost 131
kill 131
lend 131
others 131
pm.", 131
ry@@ 131
"John 130
?\nM@@ 130
?\r\nP@@ 130
An@@ 130
D 130
Next 130
\r\nAva: 130
ar 130
are@@ 130
check@@ 130
completely 130
turned 130
"Peter: 129
50 129
Adam 129
Ar@@ 129
Happy 129
\r\nSophie: 129
day, 129
hang 129
is. 129
ks 129
living 129
question@@ 129
visiting 129
!\r\nK@@ 128
.\r\nJane: 128
?" 128
?\r\nE@@ 128
Wow, 128
\r\nPaula: 128
clean 128
cute 128
fact 128
guy@@ 128
hand@@ 128
ing.", 128
omg 128
received 128
see, 128
show@@ 128
today.", 128
ver@@ 128
!\r\nT@@ 127
Saturday@@ 127
Tim 127
\r\nCaron: 127
\r\nWilliam: 127
ic 127
idea. 127
maybe@@ 127
pl@@ 127
pop 127
there.\r\n@@ 127
wow, 127
wrong@@ 127
!\r\nC@@ 126
!\r\nJ@@ 126
!\r\nR@@ 126
OK 126
Sarah 126
\r\nSally: 126
ant 126
giving 126
ous 126
played 126
question 126
rent 126
sitting 126
.\r\nChris: 125
?\r\nAnn: 125
May 125
\r\nNina: 125
dy 125
in, 125
ist 125
king 125
me? 125
table 125
😉@@ 125
.\r\nK@@ 124
?\r\nAdam: 124
Still 124
T 124
done@@ 124
eat@@ 124
hot 124
pub 124
series 124
That’s 123
account 123
clothes 123
ity 123
meet@@ 123
o, 123
si@@ 123
"Mary: 122
& 122
Anything 122
Jake 122
OMG 122
Wednesday 122
\r\nAgnes: 122
ev@@ 122
number@@ 122
per@@ 122
trip@@ 122
Her 121
Really? 121
Some 121
Was 121
\r\nJoan: 121
afternoon@@ 121
bye@@ 121
me! 121
pro@@ 121
safe 121
?\r\nJim: 120
?\r\nN@@ 120
absolutely 120
bar 120
de@@ 120
far@@ 120
happen 120
ly. 120
needed 120
project@@ 120
serious@@ 120
station 120
teach 120
ul@@ 120
.\r\nJim: 119
.\r\nKate: 119
200@@ 119
K 119
Lucy 119
\r\nLilly: 119
ass@@ 119
ec@@ 119
ex@@ 119
green 119
mate@@ 119
min 119
place, 119
remember@@ 119
store 119
studying 119
town@@ 119
train@@ 119
way. 119
.\r\nT@@ 118
??\r\n@@ 118
?\nL@@ 118
?\r\nTim: 118
Give 118
Matt 118
\r\nCaroline: 118
afford 118
ance 118
com@@ 118
earlier 118
ideas 118
invites 118
married 118
myself@@ 118
offers 118
out, 118
recently 118
sad 118
whatever 118
Andy 117
Haha, 117
London 117
\nPeter: 117
\r\nA@@ 117
\r\nCarol: 117
\r\nClaire: 117
\r\nH@@ 117
add 117
conference 117
ho@@ 117
news@@ 117
wrote 117
"Kate 116
?\r\nPaul: 116
TV 116
Thanks! 116
\r\nDorothy: 116
all, 116
drinking 116
hotel 116
ies 116
person@@ 116
pre@@ 116
tr@@ 116
xxx@@ 116
.\r\nJack: 115
.\r\nSam: 115
Hello, 115
\nJack: 115
\r\nLogan: 115
against 115
anybody 115
by@@ 115
club 115
family@@ 115
fi@@ 115
left@@ 115
ou@@ 115
point@@ 115
son: 115
start@@ 115
sweet 115
things@@ 115
ve 115
winter 115
work.", 115
.\r\nA@@ 114
Cool@@ 114
John@@ 114
\r\nJulie: 114
an's 114
av@@ 114
br@@ 114
break@@ 114
considering 114
copy 114
hand 114
happen@@ 114
hit 114
hours@@ 114
managed 114
vi@@ 114
"W@@ 113
.\r\nAnna: 113
?\r\nSarah: 113
Probably 113
\r\nAbigail: 113
\r\nDave: 113
\r\nJennifer: 113
anna: 113
count 113
ian 113
ing? 113
moment@@ 113
teacher 113
together. 113
!\r\nTom: 112
"Mike: 112
Saturday. 112
\r\nThomas: 112
actually@@ 112
alone@@ 112
bar@@ 112
ber@@ 112
bottle 112
enough@@ 112
felt 112
fl@@ 112
job. 112
ob@@ 112
post@@ 112
proud 112
sal@@ 112
sth@@ 112
summer 112
ticket 112
?\r\nEmma: 111
?\r\nLaura: 111
?\r\nLinda: 111
\r\nLily: 111
\r\nLiz: 111
\r\nMaya: 111
\r\nSandra: 111
cat@@ 111
door 111
en. 111
enjoyed 111
flying 111
h, 111
head@@ 111
in: 111
k, 111
le. 111
not. 111
passed 111
po@@ 111
s\n@@ 111
some@@ 111
th 111
weird 111
win 111
with@@ 111
.\r\nR@@ 110
:-(@@ 110
>@@ 110
?\r\nH@@ 110
?\r\nJake: 110
Frank 110
Jim 110
Lisa 110
Monica 110
Too 110
Tuesday 110
\nL@@ 110
ary 110
cake 110
card 110
dad@@ 110
fancy 110
interesting@@ 110
ish 110
lucky 110
travel 110
understand@@ 110
won’t 110
yourself@@ 110
.\r\nJ@@ 109
?\r\nHarry: 109
Jenny 109
Same 109
Thanks. 109
\r\nCharlotte: 109
\r\nJay: 109
\r\nTerry: 109
am, 109
anyway, 109
ass 109
birthday@@ 109
exam@@ 109
film 109
mad 109
mom@@ 109
no! 109
nobody 109
rest@@ 109
sell 109
sleep@@ 109
thanks. 109
whats 109
:/ 108
Friday. 108
George 108
Monday@@ 108
\nMike: 108
\r\nG@@ 108
\r\nJimmy: 108
\r\nKyle: 108
around@@ 108
ay: 108
beer@@ 108
chicken 108
expensive@@ 108
hard@@ 108
keys 108
lose 108
much. 108
op@@ 108
place?\r\n@@ 108
sha@@ 108
them.", 108
thx@@ 108
win@@ 108
"Car@@ 107
"Mike 107
:-D@@ 107
E 107
Great@@ 107
Yep, 107
\nC@@ 107
\r\nAlan: 107
\r\nEve: 107
anyway 107
bored 107
calling 107
eating 107
hahaha, 107
of@@ 107
sec@@ 107
situation 107
test@@ 107
touch 107
Christmas@@ 106
Emma 106
\nE@@ 106
\r\nOliver: 106
\r\nSean: 106
\r\nSimon: 106
all. 106
awesome 106
didnt 106
dress@@ 106
face 106
fuck@@ 106
ie@@ 106
illy: 106
lol, 106
onnie: 106
prepared 106
return 106
school. 106
tho@@ 106
:-) 105
?\r\nNick: 105
?\r\nRob: 105
Bar@@ 105
Josh 105
Last 105
\r\nBob: 105
ations 105
bank 105
bi@@ 105
deal@@ 105
ey@@ 105
fan 105
gi@@ 105
girlfriend 105
ings 105
kitchen 105
movies 105
price 105
really. 105
surprised 105
while@@ 105
wont 105
.\r\nAndy: 104
.\r\nDavid: 104
.\r\nLinda: 104
?\r\nJenny: 104
Ch@@ 104
Get 104
Here 104
Yes! 104
\r\nAmber: 104
\r\nMar@@ 104
al. 104
bl@@ 104
crazy@@ 104
erry: 104
event 104
gu@@ 104
laptop 104
late. 104
line 104
ment@@ 104
morning. 104
sick@@ 104
to, 104
why? 104
👍@@ 104
!\r\nB@@ 103
Its 103
Look 103
Maria 103
Nice 103
\nR@@ 103
ally 103
anc@@ 103
fell 103
happy@@ 103
match 103
okay, 103
ordered 103
questions 103
waiting@@ 103
11 102
Alice 102
Har@@ 102
Laura 102
\r\nBarbara: 102
\r\nN@@ 102
\r\nRichard: 102
a! 102
af@@ 102
afternoon 102
al: 102
arrived 102
cooking 102
d: 102
es: 102
ist@@ 102
late, 102
look@@ 102
new@@ 102
places 102
r\n@@ 102
sign 102
ty@@ 102
usual 102
!!!!@@ 101
.\r\nAdam: 101
?\r\nJoe: 101
?\r\nMar@@ 101
Jan@@ 101
Only 101
\r\nDonna: 101
\r\nRuth: 101
again, 101
e!\r\n@@ 101
et 101
ine: 101
keeps 101
mum@@ 101
worked 101
"Anna 100
's@@ 100
; 100
?\r\nF@@ 100
Amy 100
\nJeff: 100
\r\nAngela: 100
\r\nJamie: 100
\r\nNathan: 100
\r\nO@@ 100
ad 100
ay 100
bloody 100
celebrate 100
coffee@@ 100
ess@@ 100
everybody 100
fin@@ 100
hospital 100
ill@@ 100
lin@@ 100
reason 100
tells 100
traffic 100
welcome 100
worse 100
!!!! 99
"Z@@ 99
@@@ 99
French 99
Jeff 99
\r\nFred: 99
\r\nLarry: 99
\r\nVictor: 99
any@@ 99
bad, 99
course. 99
damn 99
dear 99
explain 99
le, 99
lets 99
old@@ 99
sleeping 99
.\r\nE@@ 98
.\r\nG@@ 98
?\r\nLisa: 98
Dad 98
Go 98
Italian 98
Okay. 98
Patrick 98
Tom@@ 98
Y 98
\r\nMaggie: 98
\r\nMelissa: 98
als 98
depends 98
die 98
ence 98
love@@ 98
mad@@ 98
pic@@ 98
ring 98
s' 98
sense 98
son@@ 98
week.", 98
when@@ 98
will, 98
wonder 98
?\r\nSue: 97
Be 97
Bill 97
Br@@ 97
Julia 97
Rob 97
We've 97
\r\nBrad: 97
ago. 97
ai@@ 97
along 97
am. 97
bus@@ 97
died 97
doctor@@ 97
dog@@ 97
episode 97
know! 97
p.m. 97
park 97
shop@@ 97
stopped 97
straight 97
that! 97
us. 97
"Mary 96
"Peter 96
"There 96
-_-@@ 96
.\r\nAlex: 96
.\r\nPaul: 96
:O@@ 96
?\r\nDavid: 96
?\r\nMonica: 96
Actually 96
Daniel 96
Hm, 96
Kim 96
Luke 96
Max 96
Nope, 96
Really@@ 96
Steve 96
What? 96
cut 96
email@@ 96
ous@@ 96
ow@@ 96
plus 96
pp@@ 96
preparing 96
real@@ 96
round 96
soon. 96
th. 96
😍@@ 96
"St@@ 95
.\r\nBill: 95
:p@@ 95
<file_other> 95
?\r\nMartha: 95
Gr@@ 95
Jason 95
Sure! 95
\nS@@ 95
_@@ 95
advice 95
days. 95
either@@ 95
f 95
normal 95
nothing@@ 95
previous 95
size 95
top 95
travelling 95
um 95
"El@@ 94
"Mark: 94
...\r\nJ@@ 94
??? 94
?\r\nAndy: 94
?\r\nDan: 94
?\r\nEmily: 94
?\r\nJacob: 94
Guys, 94
In@@ 94
Sh@@ 94
Sunday@@ 94
\r\nAmelia: 94
\r\nJackie: 94
am: 94
ard 94
behind 94
computer 94
fast 94
gives 94
mention 94
pics 94
plane 94
terrible 94
thanks! 94
tion 94
wearing 94
weird@@ 94
years@@ 94
!\r\nKate: 93
!\r\nMary: 93
"Adam: 93
"Anna: 93
;@@ 93
Good@@ 93
You've 93
\r\nJess: 93
\r\nJoseph: 93
brought 93
ell@@ 93
es? 93
fish 93
happens 93
lie 93
lives 93
morning, 93
quick 93
sad@@ 93
sooo 93
training 93
ty 93
will. 93
worries, 93
🙂@@ 93
"Alex: 92
.\r\nFrank: 92
Cool, 92
Martha 92
Something 92
\r\nJerry: 92
\r\nMel: 92
alright@@ 92
ans 92
bad. 92
che@@ 92
cream 92
de 92
fit 92
flat@@ 92
hello 92
it!\r\n@@ 92
moment 92
ne@@ 92
nor 92
ones@@ 92
recently@@ 92
ton 92
ts@@ 92
via 92
warm 92
woman 92
y? 92
!\r\nE@@ 91
". 91
;D@@ 91
Emily 91
Michael 91
Mon@@ 91
Never 91
S 91
Why? 91
\r\nMatthew: 91
\r\nMeg: 91
\r\nTaylor: 91
dat@@ 91
dude 91
ear@@ 91
group@@ 91
hates 91
is: 91
ise 91
matter 91
milk 91
missing 91
month. 91
music@@ 91
picking 91
posted 91
promise 91
sorry. 91
upset 91
wedding@@ 91
"Jack: 90
?\r\nMia: 90
Exactly@@ 90
First 90
Greg 90
Joe 90
Olivia 90
Thomas 90
\r\nAudrey: 90
\r\nDaisy: 90
\r\nF@@ 90
\r\nTracy: 90
able@@ 90
ages@@ 90
ana 90
baby@@ 90
boring 90
breakfast 90
cool. 90
cover 90
ella: 90
ely 90
ena: 90
enny: 90
favorite 90
flight@@ 90
homework 90
ment 90
paper 90
piece 90
shall 90
sk@@ 90
story 90
to. 90
won 90
?\nR@@ 89
?\r\nMatt: 89
I’d 89
\nN@@ 89
\r\nBeth: 89
\r\nEllie: 89
\r\nRick: 89
^^@@ 89
ations@@ 89
basically 89
birthday. 89
easier 89
figure 89
heading 89
home.", 89
ia@@ 89
ies@@ 89
join@@ 89
lik@@ 89
lot. 89
past 89
right? 89
store@@ 89
ud@@ 89
world@@ 89
.\r\nMatt: 88
?\r\nKelly: 88
Ethan 88
Even 88
Facebook 88
They'll 88
\r\nDad: 88
\r\nDanny: 88
\r\nJeremy: 88
\r\nJo: 88
\r\nNicole: 88
\r\nVicky: 88
ate@@ 88
become 88
cl@@ 88
did, 88
evening. 88
friends@@ 88
helped 88
husband 88
mins@@ 88
night, 88
photo@@ 88
summer@@ 88
that? 88
thx 88
who@@ 88
worst 88
young 88
"Sam: 87
.... 87
...\r\nL@@ 87
25 87
40 87
?!\r\n@@ 87
Hey! 87
Lol@@ 87
Mr 87
Netflix 87
William 87
Yep@@ 87
\r\nJill: 87
ble 87
car. 87
country 87
e.\r\nL@@ 87
earlier@@ 87
i'd 87
light 87
office@@ 87
owe 87
pizza@@ 87
private 87
s!\r\n@@ 87
seriously 87
snow@@ 87
t: 87
tonight, 87
tri@@ 87
we@@ 87
whether 87
wi@@ 87
?\r\nLucy: 86
?\r\nMax: 86
Andrew 86
Cool. 86
PM 86
PM@@ 86
\r\nSteven: 86
although 86
art@@ 86
au@@ 86
back. 86
boy@@ 86
chat 86
course! 86
cute@@ 86
holidays 86
house. 86
ick: 86
interview 86
later. 86
mat@@ 86
plenty 86
presentation 86
re 86
stressed 86
sun@@ 86
swimming 86
thing. 86
though, 86
true, 86
website 86
!\r\nMar@@ 85
.\r\nMar@@ 85
Ab@@ 85
Black 85
Kevin 85
Linda 85
Mo@@ 85
O 85
Sam@@ 85
You’re 85
\r\nMarie: 85
\r\nOwen: 85
accident 85
advises 85
agreed 85
ara: 85
ation. 85
car, 85
free@@ 85
ful@@ 85
id 85
information 85
internet 85
often 85
ons 85
social 85
ss@@ 85
station@@ 85
ves 85
wow@@ 85
!\r\nJohn: 84
:* 84
About 84
Looks 84
People 84
Poor 84
Tina 84
XD 84
\nJohn: 84
\r\nFiona: 84
\r\nIsabella: 84
\r\nJoanna: 84
address 84
again. 84
ages 84
ann@@ 84
broken 84
er: 84
inter@@ 84
k. 84
like@@ 84
od@@ 84
option@@ 84
shoes 84
sit 84
suggest 84
tea 84
us: 84
working@@ 84
😘@@ 84
😜@@ 84
!\r\nG@@ 83
"Tim: 83
.\r\nBen: 83
.\r\nJoe: 83
?\r\nJosh: 83
Anyone 83
Dan 83
Henry 83
Mom 83
Year's 83
\r\nMargaret: 83
\r\nMason: 83
\r\nNatalie: 83
\r\nSophia: 83
age@@ 83
arrange 83
box 83
city@@ 83
dr@@ 83
drink@@ 83
hurry 83
it!@@ 83
kind@@ 83
parents@@ 83
pe@@ 83
planned 83
prefers 83
reach 83
space 83
walking 83
was@@ 83
yes! 83
!\r\nMark: 82
"O@@ 82
.\r\nEmma: 82
.\r\nGeorge: 82
?\r\nAmy: 82
?\r\nDave: 82
Jack@@ 82
Mia 82
\r\nAna: 82
\r\nMolly: 82
\r\nTrevor: 82
aa@@ 82
accept 82
ath@@ 82
bag 82
calm 82
ch 82
cold@@ 82
ee 82
enc@@ 82
form 82
four 82
google 82
hi, 82
hotel@@ 82
list@@ 82
on! 82
ps 82
rain@@ 82
scared 82
twice 82
us, 82
wake 82
wow 82
"It's 81
"Mark 81
's. 81
...\r\nM@@ 81
?\r\nSusan: 81
Christ@@ 81
Greg: 81
Li@@ 81
May@@ 81
More 81
Paul: 81
You@@ 81
\r\nMichelle: 81
\r\nVeronica: 81
ans@@ 81
bother 81
club@@ 81
deadline 81
er.", 81
ful 81
ge 81
history 81
hoping 81
horrible 81
kids@@ 81
later.", 81
ot@@ 81
proper 81
single 81
suppose 81
there! 81
third 81
ton: 81
up.", 81
"Paul: 80
100 80
?\r\nBill: 80
?\r\nDaniel: 80
Anne 80
By 80
El@@ 80
Jacob 80
Kelly 80
Mad@@ 80
Send 80
Susan 80
\nJ@@ 80
\nMary: 80
\r\nAnnie: 80
\r\nBart: 80
\r\nCindy: 80
art 80
der@@ 80
easy@@ 80
ella 80
fed 80
fight 80
go. 80
hon@@ 80
hospital@@ 80
know... 80
possible@@ 80
ric@@ 80
ry 80
sc@@ 80
sl@@ 80
song@@ 80
sweet@@ 80
tea@@ 80
time.", 80
usual@@ 80
weeks@@ 80
welcome@@ 80
within 80
woke 80
"David: 79
"Juli@@ 79
04@@ 79
?\nD@@ 79
?\r\nBob: 79
?\r\nGeorge: 79
?\r\nRobert: 79
Didn't 79
Glad 79
Nick 79
Poland 79
So@@ 79
Sue 79
US 79
\r\nAndrea: 79
\r\nEvan: 79
\r\nPam: 79
\r\nPete: 79
\r\nSamantha: 79
\r\nWendy: 79
asap@@ 79
asking@@ 79
az@@ 79
bag@@ 79
better, 79
board 79
caught 79
doesn’t 79
ed! 79
ep@@ 79
file 79
food, 79
football 79
forgot@@ 79
ian@@ 79
k: 79
key 79
key@@ 79
library 79
lie: 79
loo@@ 79
mess@@ 79
mon@@ 79
nice. 79
now.", 79
oh@@ 79
own@@ 79
parking 79
road 79
sing@@ 79
sm@@ 79
strange 79
stupid@@ 79
though. 79
throw 79
weekend, 79
xD 79
yep@@ 79
you.\r\n@@ 79
!\r\nJack: 78
'll 78
.\r\nTim: 78
198@@ 78
Brian 78
Eve 78
From 78
Has 78
He'll 78
Kar@@ 78
Okay@@ 78
\r\nAaron: 78
\r\nDylan: 78
an. 78
attend 78
collect 78
costs 78
da 78
die: 78
er's 78
given 78
hair@@ 78
inform 78
inside 78
listening 78
ran 78
service 78
team@@ 78
this, 78
this. 78
tired@@ 78
ve@@ 78
vegan 78
watch@@ 78
whenever 78
yl@@ 78
!\r\nJane: 77
"Ar@@ 77
.\r\nMartha: 77
.\r\nP@@ 77
?\r\nIan: 77
Am@@ 77
Isn't 77
Karen 77
Oliver 77
P 77
Sp@@ 77
\nK@@ 77
\nT@@ 77
\r\nKatie: 77
\r\nPatty: 77
air 77
airport 77
choice 77
cleaning 77
company@@ 77
concert@@ 77
confirm 77
consider 77
fingers 77
grand@@ 77
hell@@ 77
int@@ 77
ish@@ 77
kept 77
kidding 77
lat@@ 77
lately@@ 77
matter@@ 77
mentioned 77
party, 77
pric@@ 77
print 77
research 77
restaurant@@ 77
suit 77
university 77
visited 77
weekend.", 77
.\r\nN@@ 76
.\r\nSarah: 76
?\r\nLuke: 76
?\r\nSara: 76
And@@ 76
Ann@@ 76
Chloe 76
Eric 76
He@@ 76
Or@@ 76
Peter: 76
Try 76
\nKim: 76
\nP@@ 76
\nTim: 76
\r\nRon: 76
\r\nSamuel: 76
\r\nTyler: 76
board@@ 76
cr@@ 76
dark 76
door@@ 76
doubt 76
high@@ 76
joining 76
ley 76
man. 76
men 76
o. 76
oooo@@ 76
pi@@ 76
se, 76
sho@@ 76
split 76
type 76
v 76
war@@ 76
women 76
youre 76
“@@ 76
!\r\nChris: 75
"Ann: 75
$ 75
..\r\n@@ 75
199@@ 75
?\nK@@ 75
?\r\nFrank: 75
?\r\nGreg: 75
?\r\nJessica: 75
?\r\nMichael: 75
?\r\nRachel: 75
Haha@@ 75
Pat@@ 75
Pete 75
Pl@@ 75
Remember 75
\r\nBrooke: 75
\r\nHolly: 75
available@@ 75
band 75
ble@@ 75
boring@@ 75
brother@@ 75
cancel 75
cheaper 75
dating 75
dude@@ 75
e?\r\nL@@ 75
ell: 75
ended 75
ers, 75
famous 75
hold 75
hurt 75
iz@@ 75
mer@@ 75
office. 75
organize 75
our@@ 75
pain 75
pain@@ 75
par@@ 75
report 75
street 75
th, 75
the@@ 75
tim@@ 75
times@@ 75
ton@@ 75
w 75
wishes 75
.\r\nAnn: 74
.\r\nLucy: 74
1-@@ 74
???@@ 74
Helen 74
Le@@ 74
Martin 74
Robert 74
\nPaul: 74
\r\nAustin: 74
account@@ 74
app 74
ates 74
bas@@ 74
boo@@ 74
bringing 74
but@@ 74
call@@ 74
daughter 74
es! 74
ever@@ 74
experience 74
honest@@ 74
hy@@ 74
indeed@@ 74
interested@@ 74
ion 74
literally 74
otherwise 74
pan@@ 74
professor 74
ser@@ 74
should@@ 74
shower 74
shut 74
special@@ 74
uni@@ 74
water@@ 74
"Tim 73
...\r\nB@@ 73
.\r\nDan: 73
?\r\nSteve: 73
?\r\nTony: 73
Check 73
Dave 73
Guess 73
L 73
Olivia: 73
Ros@@ 73
Sophie 73
Wow! 73
Yea 73
\r\nBobby: 73
\r\nEllen: 73
anny: 73
ash@@ 73
beautiful@@ 73
bigger 73
current 73
dec@@ 73
e.\r\nJ@@ 73
e?\r\nD@@ 73
game@@ 73
hehe@@ 73
hmm@@ 73
ics 73
job, 73
kid@@ 73
local 73
outside@@ 73
pet@@ 73
recipe 73
ride 73
spare 73
st 73
throwing 73
uc@@ 73
washing 73
😀@@ 73
"Chris: 72
"Sam 72
.\r\nMom: 72
2-@@ 72
?\r\nJulia: 72
?\r\nKim: 72
Ev@@ 72
Ger@@ 72
God, 72
Jessica 72
Our 72
Rachel 72
Su@@ 72
\r\nBecky: 72
alright 72
anything, 72
beach 72
card@@ 72
cha@@ 72
col@@ 72
college 72
decent 72
entire 72
entrance 72
ette 72
fast@@ 72
final 72
fre@@ 72
gift@@ 72
good! 72
heart 72
ic, 72
ie's 72
ine@@ 72
lesson 72
low 72
m, 72
meant 72
middle 72
ory: 72
pink 72
practice 72
res 72
results 72
several 72
stayed 72
ter, 72
thing, 72
tions 72
two@@ 72
!\r\nSam: 71
;/@@ 71
<@@ 71
?\r\nHenry: 71
Actually, 71
Also 71
C 71
Charlie 71
Don’t 71
Hannah 71
Paula 71
YOU 71
\nJames: 71
\r\nAdrian: 71
\r\nDon: 71
\r\nHugh: 71
\r\nLindsay: 71
\r\nTommy: 71
ain@@ 71
airport@@ 71
apartment@@ 71
buy@@ 71
ce 71
checking 71
dear@@ 71
dy@@ 71
eg@@ 71
ette: 71
fire 71
fly 71
gg@@ 71
ik@@ 71
il 71
ind@@ 71
mess 71
minute 71
noticed 71
off. 71
part@@ 71
schedule 71
someone@@ 71
support 71
walk@@ 71
we’re 71
yeah. 71
"Adam 70
"Alex 70
...\r\nD@@ 70
.\r\nH@@ 70
.\r\nLaura: 70
?\nS@@ 70
?\r\nKaren: 70
?\r\nOlivia: 70
Ad@@ 70
Ian 70
LOL 70
Sara 70
Talk 70
\nA@@ 70
\r\nBlake: 70
\r\nJen: 70
\r\nJustin: 70
\r\nPat: 70
\r\nZ@@ 70
beginning 70
books@@ 70
discount 70
elle: 70
exactly, 70
ey 70
future 70
god 70
guys! 70
har@@ 70
helping 70
how@@ 70
iana: 70
ila: 70
ity@@ 70
land@@ 70
ly: 70
met@@ 70
os 70
p.m@@ 70
page 70
rid 70
s... 70
same@@ 70
se. 70
season@@ 70
selling 70
soon.", 70
stand@@ 70
su@@ 70
system 70
ther@@ 70
tre@@ 70
tv 70
vote 70
wait, 70
written 70
!\r\nAnna: 69
"Emily: 69
.\r\nAlice: 69
.\r\nEmily: 69
.\r\nJames: 69
.\r\nSally: 69
?\r\nHannah: 69
Christmas. 69
Don@@ 69
Everything 69
IT@@ 69
LOL, 69
Maya 69
Paris 69
Polish 69
R 69
Thursday@@ 69
US@@ 69
\r\nDiane: 69
\r\nKimberly: 69
\r\nLauren: 69
agree@@ 69
ally@@ 69
article 69
ati@@ 69
cook@@ 69
create 69
ene: 69
everyone@@ 69
follow 69
get@@ 69
hat@@ 69
ical 69
idea! 69
ings@@ 69
ked 69
mobile 69
months@@ 69
oc@@ 69
ona: 69
pack 69
paying 69
people, 69
quit 69
remind 69
reminds 69
request.", 69
s" 69
shares 69
sold 69
students 69
ticket@@ 69
tion@@ 69
tough 69
ub@@ 69
worries@@ 69
yours@@ 69
"Greg: 68
"Jane 68
"Paul 68
.\r\nDaniel: 68
?\nB@@ 68
?\r\nAlice: 68
?\r\nEva: 68
?\r\nNancy: 68
Hahaha@@ 68
Mat@@ 68
OMG@@ 68
Sorry@@ 68
\nSam: 68
\r\nBenjamin: 68
\r\nElizabeth: 68
\r\nMandy: 68
ane: 68
back, 68
body 68
boy 68
colour@@ 68
drunk@@ 68
fall 68
from@@ 68
gam@@ 68
ill: 68
ive 68
nic@@ 68
ola: 68
pay@@ 68
seemed 68
star@@ 68
str@@ 68
sur@@ 68
touch@@ 68
transfer 68
under@@ 68
weeks. 68
worse@@ 68
£@@ 68
!\r\nA@@ 67
!\r\nKelly: 67
"James: 67
"Jane: 67
"Monica: 67
:))@@ 67
?\r\nAl@@ 67
Co@@ 67
Good, 67
Harry: 67
Spanish 67
Warsaw 67
\r\nLola: 67
\r\nScott: 67
after@@ 67
agrees 67
anna 67
better. 67
ci@@ 67
cre@@ 67
ed: 67
ens 67
ers. 67
ery 67
eyes 67
five 67
girls@@ 67
help. 67
honey@@ 67
im: 67
ion@@ 67
kid 67
mate 67
math 67
n. 67
pair 67
picked 67
police 67
she’s 67
spending 67
there? 67
they@@ 67
year, 67
yep, 67
"Ben: 66
.\r\nMonica: 66
.\r\nSusan: 66
123@@ 66
?\nJ@@ 66
?\r\nJason: 66
?\r\nJeff: 66
?\r\nSophie: 66
Clar@@ 66
Ex@@ 66
Luc@@ 66
Sunday. 66
Th@@ 66
\r\nJon: 66
\r\nLee: 66
\r\nLydia: 66
\r\nTheo: 66
\r\nZack: 66
address@@ 66
apparently 66
ast@@ 66
dead 66
did. 66
ely@@ 66
en's 66
eye 66
fb 66
finishing 66
flowers 66
hahahaha@@ 66
haven’t 66
himself 66
hot@@ 66
ideas@@ 66
learning 66
ll 66
offered 66
onny: 66
opinion 66
paper@@ 66
promised 66
red@@ 66
sed 66
shows 66
there.", 66
yes. 66
"Henry: 65
"Jake: 65
"Jenny: 65
...\r\nS@@ 65
.\r\nGreg: 65
3-@@ 65
?\r\nJerry: 65
Call 65
John: 65
Monday. 65
No! 65
Today 65
Wait 65
\nJenny: 65
\nLinda: 65
\r\nRebecca: 65
\r\nSuzie: 65
\r\nTed: 65
a? 65
ation, 65
avoid 65
changing 65
chocolate 65
conversation 65
does@@ 65
early@@ 65
failed 65
floor 65
gh@@ 65
hahah@@ 65
hear@@ 65
ie, 65
info 65
ley: 65
mm@@ 65
or. 65
place.", 65
reason@@ 65
rid@@ 65
sex 65
sing 65
slept 65
turns 65
ure 65
yours 65
!!!!\r\n@@ 64
"Jack 64
.\r\nBob: 64
.\r\nJake: 64
150@@ 64
4-@@ 64
?\r\nMartin: 64
Alice: 64
Bl@@ 64
Eva 64
Fin@@ 64
Gina 64
God@@ 64
Mel@@ 64
Seems 64
\nTerry: 64
\r\nBruce: 64
\r\nElla: 64
\r\nW@@ 64
air@@ 64
always@@ 64
ang@@ 64
barely 64
believes 64
bike 64
bored@@ 64
both@@ 64
case@@ 64
charge 64
cost@@ 64
cur@@ 64
dream 64
ff@@ 64
focus 64
fresh 64
have@@ 64
helps 64
honey 64
hour. 64
ins 64
isa: 64
ity. 64
language 64
les@@ 64
ling 64
lov@@ 64
mood 64
mostly 64
neither 64
on's 64
open@@ 64
ori: 64
prob@@ 64
right! 64
shit, 64
similar 64
vis@@ 64
wonderful 64
worries 64
!\nM@@ 63
"Emma: 63
"Jim: 63
"Matt 63
"Matt: 63
.\r\nRobert: 63
7-@@ 63
?\r\nBrian: 63
Con@@ 63
Hello@@ 63
Pet@@ 63
Rose 63
Tomorrow 63
Tony 63
Yeah... 63
\nJim: 63
\nMar@@ 63
\nMaria: 63
\r\n@@ 63
\r\nMay: 63
\r\nNora: 63
\r\nPamela: 63
ago, 63
blood 63
boys 63
bread 63
building 63
cash 63
cheese 63
darling@@ 63
e.\r\nD@@ 63
el, 63
essay 63
fair 63
hes 63
horrible@@ 63
now? 63
ors 63
ren@@ 63
ru@@ 63
ry, 63
say, 63
shoes@@ 63
simple 63
songs 63
te@@ 63
texting 63
thought@@ 63
together.", 63
trouble 63
uncle 63
yn@@ 63
!\r\nJosh: 62
"Laura: 62
"Sarah: 62
.\r\nHarry: 62
?\r\nAndrew: 62
Anna: 62
Ed@@ 62
Hmm 62
London@@ 62
OMG, 62
Pretty 62
Wednesday@@ 62
\r\nAnthony: 62
\r\nAr@@ 62
\r\nFinn: 62
\r\nJanet: 62
\r\nJean: 62
\r\nLouis: 62
\r\nMum: 62
\r\nRuby: 62
\r\nStacy: 62
\r\nToby: 62
agree, 62
anne: 62
anymore 62
credit 62
do! 62
e?\r\nR@@ 62
finding 62
glass 62
ick@@ 62
letting 62
lot, 62
love, 62
movie@@ 62
option 62
people. 62
phone. 62
picture@@ 62
power 62
short@@ 62
student 62
table@@ 62
top@@ 62
"Daniel: 61
.\r\nKelly: 61
.\r\nMichael: 61
.\r\nSophie: 61
?\r\nMaria: 61
?\r\nTina: 61
Bob 61
Chris: 61
Especially 61
God 61
Keep 61
Mum 61
Sandra 61
She'll 61
Who's 61
Wow 61
\r\nBella: 61
\r\nClara: 61
\r\nDean: 61
\r\nGavin: 61
\r\nPaulina: 61
\r\nStanley: 61
cent@@ 61
control 61
eeee@@ 61
eline: 61
ent, 61
event@@ 61
ey: 61
havent 61
hel@@ 61
honestly 61
ig@@ 61
ita: 61
lea@@ 61
lecture 61
light@@ 61
ok? 61
one? 61
perhaps 61
pool 61
pr@@ 61
prices 61
read@@ 61
then! 61
tion. 61
tor@@ 61
unfortunately 61
unless 61
yoga 61
!\r\nN@@ 60
!\r\nSarah: 60
"Jake 60
&@@ 60
.\r\nAndrew: 60
.\r\nTony: 60
;*@@ 60
<photo_file>@@ 60
?\r\nAmanda: 60
?\r\nDiana: 60
?\r\nMegan: 60
Cor@@ 60
Haven't 60
How@@ 60
Italy 60
Juli@@ 60
Lilly 60
Nah, 60
Nancy 60
Re@@ 60
Shall 60
\nJane: 60
\r\nErin: 60
\r\nIsla: 60
\r\nJessie: 60
\r\nOlga: 60
\r\nSylvia: 60
andy: 60
bake 60
cheap@@ 60
classes@@ 60
come. 60
complete 60
days, 60
decision 60
ding 60
e.\r\nS@@ 60
ess 60
expecting 60
gifts 60
here.\r\n@@ 60
here?\r\n@@ 60
herself 60
holiday@@ 60
icky: 60
ika: 60
least@@ 60
med 60
mine@@ 60
organise 60
party.", 60
project. 60
promis@@ 60
public 60
regular 60
surely 60
they've 60
tickets@@ 60
ver 60
yea 60
you?\n@@ 60
yup@@ 60
!\r\nMia: 59
"Martha: 59
.\r\nMia: 59
?\r\nBarbara: 59
Adam: 59
Amanda 59
Com@@ 59
Dear 59
Enjoy 59
Haha. 59
Mal@@ 59
Man@@ 59
RI@@ 59
Simon 59
Stop 59
Victoria 59
\nMonica: 59
\r\nCarter: 59
\r\nDonald: 59
\r\nGary: 59
\r\nKen: 59
\r\nLea: 59
\r\nNaomi: 59
according 59
alright, 59
anyone@@ 59
asleep 59
assignment 59
ay, 59
bitch@@ 59
cal@@ 59
chill@@ 59
client 59
convince 59
convinced 59
dance 59
den: 59
dinner. 59
du@@ 59
e?\r\nM@@ 59
ela: 59
er! 59
er? 59
expect@@ 59
fan@@ 59
girlfriend@@ 59
health 59
if@@ 59
interview@@ 59
ip@@ 59
mall 59
meal 59
meeting. 59
mid@@ 59
nam@@ 59
no. 59
pack@@ 59
pub@@ 59
regret 59
street@@ 59
ter. 59
vet@@ 59
visit@@ 59
where@@ 59
wish@@ 59
word 59
❤️@@ 59
!\r\nMike: 58
!\r\nPaul: 58
"Alice: 58
"James 58
"Sarah 58
* 58
:)\r\nR@@ 58
?\r\nHelen: 58
?\r\nPatrick: 58
Claire 58
Europe 58
Helen: 58
Her@@ 58
Hmm@@ 58
Lol 58
Michelle 58
Molly 58
Steve: 58
York 58
\r\nMadison: 58
access 58
band@@ 58
bet@@ 58
bit, 58
change@@ 58
choice@@ 58
co 58
cool! 58
down, 58
eb@@ 58
extremely 58
fac@@ 58
flights 58
garden 58
hmm, 58
hor@@ 58
hour.", 58
hungry 58
ick 58
inn@@ 58
latest 58
leg@@ 58
ma 58
mins 58
more. 58
ness 58
or, 58
perfect, 58
pissed 58
pol@@ 58
putting 58
recommended 58
seriously@@ 58
sick. 58
snow 58
something. 58
super@@ 58
tt@@ 58
waste 58
!!\r\nL@@ 57
!\r\nTim: 57
"Kar@@ 57
"Y@@ 57
...\r\nR@@ 57
.\r\nFiona: 57
.\r\nOscar: 57
8. 57
:-/@@ 57
?\r\nFiona: 57
Ah, 57
Around 57
Cause 57
Great. 57
Kat@@ 57
Lil@@ 57
Lucas 57
Mil@@ 57
Spain 57
Well@@ 57
\r\nCarrie: 57
\r\nJose: 57
\r\nJoshua: 57
\r\nJudy: 57
\r\nKayla: 57
\r\nLouise: 57
\r\nPauline: 57
accident@@ 57
appointment@@ 57
bro, 57
business@@ 57
chat@@ 57
ck@@ 57
don't@@ 57
downstairs 57
ee: 57
emp@@ 57
ending 57
enjoying 57
ent. 57
ents 57
exp@@ 57
expected 57
feed 57
finish@@ 57
god@@ 57
healthy 57
hu@@ 57
lady 57
later, 57
media 57
medical 57
money. 57
name@@ 57
notice 57
one! 57
plans@@ 57
pm, 57
ppl 57
presentation@@ 57
ra@@ 57
room. 57
somebody 57
stay@@ 57
text@@ 57
tion, 57
true. 57
ts, 57
tur@@ 57
up? 57
wear@@ 57
😂😂@@ 57
!\r\nPeter: 56
"Le@@ 56
"Michael: 56
"Olivia: 56
1st 56
3rd 56
;p@@ 56
?\r\nKevin: 56
Apparently 56
Ashley 56
Better 56
Bro@@ 56
Bye 56
Everyone 56
Going 56
Ha 56
Looking 56
PM. 56
Victoria: 56
Yo@@ 56
\nBen: 56
\nDaniel: 56
\nH@@ 56
\r\nCarl: 56
\r\nIrene: 56
\r\nJonathan: 56
\r\nRobin: 56
\r\nSebastian: 56
\r\nSonia: 56
aaa@@ 56
act 56
answer@@ 56
boyfriend@@ 56
btw@@ 56
cookies 56
design@@ 56
elle 56
ence@@ 56
fantastic 56
friends. 56
guests 56
hahah 56
idk 56
important@@ 56
inst@@ 56
ite 56
jam@@ 56
lazy 56
loads 56
ma@@ 56
meat 56
mov@@ 56
opened 56
ora: 56
political 56
sex@@ 56
soup 56
sub@@ 56
then? 56
today? 56
toilet 56
trip. 56
whatever@@ 56
😁@@ 56
"David 55
"Harry: 55
(Y)@@ 55
.\r\nF@@ 55
.\r\nLisa: 55
:)\n@@ 55
?\r\nAshley: 55
?\r\nPaula: 55
?\r\nSally: 55
?\r\nSandra: 55
?\r\nThomas: 55
?\r\nW@@ 55
Good. 55
King@@ 55
Ma@@ 55
Noah 55
Perfect, 55
Ro@@ 55
Sean 55
Since 55
Ted 55
Terry 55
Tim@@ 55
Tom, 55
Un@@ 55
Wil@@ 55
\nJessica: 55
\r\nDerek: 55
\r\nDora: 55
\r\nEmilia: 55
\r\nPhil: 55
\r\nSeth: 55
age, 55
ard@@ 55
box@@ 55
certain 55
changes 55
cheer 55
cut@@ 55
dy: 55
eh@@ 55
freaking 55
hav@@ 55
honey, 55
hopes 55
jacket@@ 55
known 55
la: 55
land 55
led 55
less@@ 55
market 55
mis@@ 55
month, 55
na 55
raining 55
res@@ 55
reservation 55
sa@@ 55
set@@ 55
ship 55
simply 55
spot@@ 55
sucks 55
texted 55
wa@@ 55
weight 55
weren't 55
window@@ 55
😂 55
!\r\nBen: 54
!\r\nJo@@ 54
"Jenny 54
"Lisa: 54
.\r\nDave: 54
.\r\nMartin: 54
;(@@ 54
?\nT@@ 54
?\r\nBeth: 54
?\r\nRick: 54
B 54
Friday, 54
Had 54
John, 54
Lily 54
Lo@@ 54
Omg 54
Patricia: 54
Paula: 54
Pre@@ 54
Qu@@ 54
Richard 54
Saturday.", 54
Time 54
Wendy 54
\nMartha: 54
\nSara: 54
\r\nAl@@ 54
\r\nJanice: 54
acy: 54
age. 54
anything. 54
aware 54
bunch 54
can't@@ 54
come, 54
cousin 54
dancing 54
e-@@ 54
e?\r\nS@@ 54
er\n@@ 54
gym@@ 54
heart@@ 54
hopefully 54
idiot@@ 54
illie: 54
ine, 54
keeping 54
letter 54
mor@@ 54
movies@@ 54
nervous 54
nice! 54
night.", 54
nope@@ 54
older 54
order@@ 54
organizing 54
particular 54
past@@ 54
pregnant 54
quality 54
receive 54
school, 54
shes 54
sign@@ 54
smart 54
sports 54
stop@@ 54
tw@@ 54
ure@@ 54
wash 54
way! 54
wh@@ 54
years. 54
"Andrew: 53
"Ann 53
"Emily 53
"Frank: 53
"Jim 53
"Julia: 53
"Monica 53
.\r\nBarbara: 53
.\r\nLuke: 53
.\r\nMax: 53
.\r\nNick: 53
.\r\nW@@ 53
2nd 53
?!@@ 53
?\r\nJennifer: 53
?\r\nWilliam: 53
Always 53
Anne: 53
Cha@@ 53
Do@@ 53
Go@@ 53
IT 53
Jerry 53
Look, 53
Marie 53
N 53
Netflix@@ 53
Nice@@ 53
Perfect@@ 53
Rick 53
TV@@ 53
Yep. 53
\r\nAlison: 53
\r\nAngie: 53
\r\nGabriel: 53
\r\nLara: 53
\r\nLenny: 53
\r\nMelanie: 53
\r\nMiranda: 53
\r\nRiley: 53
\r\nSandy: 53
apply 53
ara 53
ated@@ 53
ayla: 53
bro 53
bur@@ 53
busy. 53
bye 53
cats 53
centre 53
child 53
closed 53
closer 53
cont@@ 53
country@@ 53
date@@ 53
fat 53
feeling@@ 53
fire@@ 53
fish@@ 53
fucked 53
girl, 53
grandma 53
happening 53
hun@@ 53
ilda: 53
i’m 53
jok@@ 53
leg 53
lessons 53
let@@ 53
low@@ 53
ni@@ 53
not? 53
ob: 53
one.", 53
package 53
plays 53
pping 53
recommend@@ 53
sea@@ 53
something, 53
state 53
still@@ 53
tak@@ 53
there’s 53
towards 53
wine@@ 53
worry. 53
!\nL@@ 52
!\r\nEmma: 52
"Amanda: 52
"They 52
), 52
.\r\nDiana: 52
.\r\nKevin: 52
.\r\nPhil: 52
.\r\nRick: 52
:00 52
:o@@ 52
?\nG@@ 52
?\r\nCharlie: 52
?\r\nEric: 52
?\r\nJill: 52
Agnes 52
Amy: 52
Annie 52
Bo@@ 52
Carol: 52
Hahaha 52
Leo 52
NO@@ 52
Oh@@ 52
Oscar: 52
Quite 52
Right, 52
Saturday, 52
Ver@@ 52
Ye 52
\nMichael: 52
\nOlivia: 52
\r\nAlexis: 52
\r\nConnor: 52
\r\nGloria: 52
\r\nHeather: 52
\r\nY@@ 52
aaaa@@ 52
across 52
added 52
admit 52
are. 52
ating@@ 52
bab@@ 52
bathroom 52
cancelled 52
cas@@ 52
da: 52
dam@@ 52
disappointed 52
dude, 52
etc. 52
example 52
food. 52
gre@@ 52
hi! 52
ia, 52
informs 52
ite@@ 52
ka 52
kitchen@@ 52
la 52
ments 52
minute@@ 52
note 52
ooo@@ 52
ph@@ 52
pic 52
ple 52
please, 52
profile 52
series@@ 52
singing 52
sn@@ 52
strong 52
sucks@@ 52
terrible@@ 52
thinking@@ 52
u, 52
uses 52
ving 52
!\r\nGeorge: 51
!\r\nH@@ 51
!\r\nJake: 51
"Ben 51
"Chris 51
"Ed@@ 51
"Josh 51
"Maria: 51
"Mia 51
.\r\nCarol: 51
.\r\nRob: 51
:00@@ 51
;)\n@@ 51
?\nKate: 51
?\nMar@@ 51
?\r\nGina: 51
?\r\nJo: 51
Alex: 51
Av@@ 51
Ava 51
Both 51
Chinese 51
Grace 51
Ha@@ 51
Mine 51
Mom, 51
Morris 51
Patricia 51
Sally 51
Sim@@ 51
Thomas: 51
Want 51
Who@@ 51
YES@@ 51
Yup. 51
\nG@@ 51
\nMark: 51
\r\nArthur: 51
\r\nCarson: 51
\r\nChristina: 51
\r\nHayden: 51
\r\nMarta: 51
\r\nStephanie: 51
act@@ 51
ah, 51
ail@@ 51
along@@ 51
apart 51
ar: 51
arry: 51
before, 51
bout 51
brand 51
common 51
delivery 51
der 51
diet 51
dinner, 51
done. 51
double 51
general 51
girls, 51
guys. 51
here's 51
inny: 51
it: 51
lene: 51
lison: 51
manager 51
match@@ 51
minutes, 51
ms 51
off, 51
opening 51
ov@@ 51
personal 51
por@@ 51
position 51
pot@@ 51
present@@ 51
pu@@ 51
rac@@ 51
ris: 51
session 51
shopping@@ 51
signed 51
soon, 51
spot 51
stat@@ 51
sure! 51
switch 51
taste 51
total 51
vacation 51
vo@@ 51
what, 51
you’ll 51
!!!\n@@ 50
!\r\nP@@ 50
"Robert: 50
"V@@ 50
.\r\nOlivia: 50
5. 50
?\nTom: 50
?\r\nElla: 50
?\r\nNina: 50
?\r\nSean: 50
?\r\nTracy: 50
Ah 50
Ann: 50
Betty 50
British 50
Cool 50
Dont 50
Exactly. 50
Fuck 50
Gab@@ 50
Jennifer 50
Joan 50
La 50
Megan 50
Right 50
Rob@@ 50
Think 50
Tr@@ 50
Vicky 50
What’s 50
Yea, 50
\nAnn: 50
\r\nBrenda: 50
\r\nFilip: 50
\r\nGabrielle: 50
\r\nOla: 50
\r\nPhilip: 50
\r\nWalter: 50
appro@@ 50
ats 50
attention 50
centre@@ 50
ch, 50
chill 50
chose 50
colour 50
corner 50
danc@@ 50
decision@@ 50
dentist 50
driver 50
dropped 50
eaten 50
ement 50
enn@@ 50
except 50
friend, 50
gar@@ 50
ge, 50
he’s 50
laundry 50
nope, 50
occasion@@ 50
options 50
ous. 50
ra 50
report@@ 50
sed@@ 50
sense@@ 50
shirt 50
showed 50
tomorrow's 50
uk@@ 50
wha@@ 50
!\r\nLuke: 49
!\r\nMartha: 49
"Bob: 49
"Dan 49
"George 49
"Linda: 49
"Mia: 49
.\r\nAmy: 49
.\r\nKaren: 49
.\r\nMargaret: 49
.\r\nMel: 49
6-@@ 49
?\nA@@ 49
?\r\nBetty: 49
?\r\nDonna: 49
?\r\nLiz: 49
?\r\nMom: 49
Alright, 49
Amanda: 49
Daisy 49
ER@@ 49
Fine. 49
Fiona 49
Fiona: 49
Franc@@ 49
Fred 49
Friday.", 49
Gotta 49
Gu@@ 49
Hi. 49
Hmm, 49
John's 49
Kyle 49
M 49
Nope@@ 49
OMG! 49
Sha@@ 49
THE 49
Tuesday@@ 49
War@@ 49
Zoe 49
\nJosh: 49
\r\nAlbert: 49
\r\nArnold: 49
\r\nChristian: 49
\r\nDanielle: 49
\r\nHarper: 49
\r\nJoyce: 49
\r\nKatherine: 49
\r\nLena: 49
\r\nLia: 49
\r\nWanda: 49
able. 49
ach@@ 49
ani@@ 49
animal 49
apple 49
az: 49
be. 49
celebr@@ 49
certainly 49
children@@ 49
cinema@@ 49
class. 49
complain@@ 49
cop@@ 49
crap@@ 49
curious 49
currently 49
delay@@ 49
des@@ 49
difficult@@ 49
ence. 49
et: 49
even@@ 49
evening, 49
exams 49
fo@@ 49
interest 49
issues 49
ke 49
late.", 49
m. 49
med@@ 49
mind. 49
my@@ 49
nights 49
ora 49
over. 49
perfectly 49
presents 49
sam@@ 49
scar@@ 49
skiing 49
slow 49
sol@@ 49
suits 49
use@@ 49
wan@@ 49
what’s 49
willing 49
!\r\nDave: 48
!\r\nSue: 48
"George: 48
"Greg 48
"Ian: 48
"Joe: 48
"Karen: 48
"Lisa 48
+@@ 48
.\r\nAgnes: 48
.\r\nEric: 48
.\r\nSteve: 48
45 48
:)\r\nC@@ 48
?\r\nAnne: 48
?\r\nBrad: 48
?\r\nClaire: 48
Anyway 48
Awesome@@ 48
Berlin 48
Diana 48
Gabri@@ 48
George: 48
Mary@@ 48
Mrs 48
Need 48
Nina 48
Nobody 48
Really 48
True. 48
UK 48
When@@ 48
\r\nPhoebe: 48
\r\nStella: 48
\r\nTeresa: 48
\r\nXavier: 48
able, 48
afternoon. 48
ain 48
als@@ 48
amazing, 48
amount 48
anymore. 48
anywhere 48
att@@ 48
ax@@ 48
big@@ 48
book, 48
book. 48
borrowed 48
cap@@ 48
cash@@ 48
ch. 48
char@@ 48
church 48
claims 48
cri@@ 48
different@@ 48
eggs 48
exchange 48
excited@@ 48
fe@@ 48
files 48
first, 48
floor@@ 48
friends, 48
game. 48
ger@@ 48
goo@@ 48
ha, 48
hello@@ 48
hope@@ 48
i, 48
ide@@ 48
issue 48
lake 48
laptop@@ 48
ll@@ 48
machine 48
men@@ 48
mother@@ 48
park@@ 48
pat@@ 48
perfect! 48
second@@ 48
ses@@ 48
sil@@ 48
so... 48
t's 48
together, 48
truly 48
weather@@ 48
won@@ 48
yea@@ 48
!\nJ@@ 47
"Harry 47
"Laura 47
"Nick 47
...\r\nT@@ 47
.\r\nGina: 47
.\r\nRose: 47
.\r\nSimon: 47
5-@@ 47
?\r\nAngela: 47
?\r\nGrace: 47
?\r\nJay: 47
?\r\nZoe: 47
Andrew: 47
Ben@@ 47
Beth 47
Caroline 47
Di@@ 47
Every 47
Fred: 47
G 47
Gre@@ 47
Mac@@ 47
Nor@@ 47
Owen 47
Plus 47
Poland@@ 47
Right@@ 47
Sometimes 47
TH@@ 47
Ter@@ 47
Tracy 47
Warsaw@@ 47
Zoe: 47
\nKelly: 47
\r\nCarmen: 47
\r\nDominic: 47
\r\nErica: 47
arriv@@ 47
babe 47
ches 47
clear 47
code 47
complaining 47
department 47
dream@@ 47
e.\r\nR@@ 47
ect@@ 47
everything's 47
ex 47
fill 47
hahah, 47
hahahah@@ 47
ham@@ 47
holidays@@ 47
inviting 47
it?\n@@ 47
itt@@ 47
just@@ 47
killing 47
level 47
lying 47
money, 47
not! 47
online@@ 47
organis@@ 47
pages 47
pleasure 47
products 47
quick@@ 47
random 47
relax 47
seriously, 47
stick 47
suggested 47
t! 47
teacher@@ 47
ten 47
tions@@ 47
treat 47
ve, 47
ve. 47
version 47
ves@@ 47
ways 47
wer@@ 47
word@@ 47
xd 47
yesterday, 47
yup, 47
’@@ 47
!\r\nAlex: 46
!\r\nFrank: 46
"A 46
"Julia 46
"Martha 46
+ 46
.\r\nHenry: 46
?\nP@@ 46
?\r\nMaya: 46
?\r\nPhil: 46
Am 46
American 46
Bring 46
Charles 46
Charlie: 46
Cool! 46
Dam@@ 46
Donna 46
EU 46
Jackie 46
Jo 46
Julie 46
Make 46
Maybe@@ 46
ON@@ 46
Oscar 46
Pal@@ 46
Paul@@ 46
Pete: 46
Pro@@ 46
Ryan 46
Smith 46
Well... 46
Woo@@ 46
Yeah! 46
\nF@@ 46
\r\nAlexander: 46
\r\nCatherine: 46
\r\nEdward: 46
\r\nJackson: 46
\r\nRonnie: 46
\r\nScarlett: 46
\r\nYuri: 46
ade 46
ammy: 46
andra: 46
asha: 46
babe@@ 46
beach@@ 46
beers 46
bor@@ 46
born 46
cafe 46
care, 46
cast@@ 46
clean@@ 46
clothes@@ 46
diet@@ 46
doc@@ 46
el. 46
enter 46
finally@@ 46
first. 46
friday 46
fridge@@ 46
hall@@ 46
handle 46
ica 46
is! 46
ism 46
kick 46
killed 46
last@@ 46
library@@ 46
lif@@ 46
lovely@@ 46
ly! 46
mall@@ 46
mil@@ 46
ous, 46
packed 46
pass@@ 46
pasta 46
pick@@ 46
points 46
psycho@@ 46
relationship 46
ship@@ 46
sit@@ 46
situation@@ 46
solve 46
soooo 46
sound@@ 46
suit@@ 46
ters 46
today's 46
tonight? 46
town. 46
traffic@@ 46
unn@@ 46
ust@@ 46
videos 46
voted 46
"Alice 45
"Daniel 45
"Emma 45
"Har@@ 45
"Henry 45
"Linda 45
"Maria 45
.....@@ 45
...\r\nE@@ 45
.\nS@@ 45
.\r\nMolly: 45
.\r\nPatrick: 45
.\r\nRachel: 45
.\r\nSandra: 45
:<@@ 45
<file_gif> 45
<file_picture>@@ 45
?\r\nAgnes: 45
?\r\nFred: 45
?\r\nLily: 45
?\r\nMel: 45
?\r\nPete: 45
?\r\nSimon: 45
Barbara 45
Bu@@ 45
Caron 45
December 45
Eva: 45
Freddie 45
Kim@@ 45
San 45
Tuesday. 45
Victor 45
Wednesday. 45
\nAndy: 45
\r\nBruno: 45
\r\nClark: 45
\r\nEvelyn: 45
\r\nHank: 45
\r\nI@@ 45
\r\nJulian: 45
\r\nRoss: 45
\r\nTimothy: 45
again? 45
area@@ 45
be, 45
been@@ 45
bill@@ 45
black@@ 45
calls 45
cooked 45
coun@@ 45
deb@@ 45
done, 45
dry 45
empty 45
exhibition 45
fil@@ 45
fixed 45
ham 45
hardly 45
homework@@ 45
honest 45
ically 45
il: 45
invit@@ 45
jealous 45
ka: 45
kidding@@ 45
law 45
leave@@ 45
len: 45
lit@@ 45
ma: 45
mate, 45
mean. 45
months. 45
much! 45
n, 45
neither@@ 45
next@@ 45
nut@@ 45
offic@@ 45
onn@@ 45
opinion@@ 45
ore 45
ore@@ 45
ory 45
out.", 45
please. 45
pls 45
prepar@@ 45
pressure 45
pri@@ 45
produc@@ 45
promises 45
responsible 45
said@@ 45
showing 45
sometimes@@ 45
speaking 45
spoke 45
staff 45
surprise@@ 45
theatre 45
track 45
tru@@ 45
ya: 45
yo 45
‍@@ 45
😃@@ 45
!\r\nRose: 44
"Frank 44
"Hannah: 44
"Jack@@ 44
). 44
.\r\nHelen: 44
.\r\nJacob: 44
.\r\nJason: 44
.\r\nNina: 44
.\r\nPaula: 44
.\r\nSamantha: 44
?\r\nMaggie: 44
?\r\nRuby: 44
?\r\nWendy: 44
Any@@ 44
April 44
Cas@@ 44
Dec@@ 44
ES@@ 44
Frank: 44
Isabelle: 44
Jess@@ 44
Lu@@ 44
Oh! 44
Paris@@ 44
Pat 44
Their 44
Thought 44
To@@ 44
Tom's 44
Wendy: 44
Xmas 44
\r\nCaleb: 44
\r\nGemma: 44
\r\nMila: 44
\r\nMona: 44
aff@@ 44
ake 44
already. 44
amazing! 44
andy 44
annoying 44
area 44
ate, 44
away. 44
awesome, 44
bre@@ 44
can. 44
cho@@ 44
choose@@ 44
clear@@ 44
comfortable 44
computer@@ 44
considers 44
correct 44
crossed 44
crossed@@ 44
decides 44
dick@@ 44
dirty 44
down. 44
drinks@@ 44
earn 44
ern@@ 44
falling 44
flu@@ 44
forget@@ 44
help, 44
horror 44
hours. 44
ian: 44
ice@@ 44
in's 44
it.\r\nL@@ 44
ities 44
ky 44
lecture@@ 44
mail 44
message@@ 44
nearly 44
net@@ 44
ney 44
now! 44
often@@ 44
olly 44
olly: 44
on.", 44
once@@ 44
papers 44
relax@@ 44
ret@@ 44
romantic 44
rout@@ 44
s.@@ 44
saving 44
skip 44
sor@@ 44
soup@@ 44
stuff. 44
teaching 44
theres 44
think, 44
think. 44
topic 44
understand, 44
up! 44
urgent@@ 44
vent@@ 44
video@@ 44
view 44
we’ll 44
working. 44
would@@ 44
yo@@ 44
yr@@ 44
é@@ 44
”@@ 44
️@@ 44
😎@@ 44
!\r\nAl@@ 43
!\r\nHarry: 43
!\r\nJim: 43
!\r\nSally: 43
"Andy: 43
"Bob 43
"Ian 43
"Jacob: 43
"Tom@@ 43
#@@ 43
...\r\nK@@ 43
.\r\nJessica: 43
.\r\nLeo: 43
?\nE@@ 43
?\r\nEve: 43
?\r\nJoanna: 43
?\r\nJude: 43
?\r\nOliver: 43
?\r\nPat: 43
?\r\nWill: 43
AM 43
AM@@ 43
Adri@@ 43
Alex@@ 43
Bab@@ 43
Carol 43
Carol@@ 43
Clark: 43
Dar@@ 43
Dr@@ 43
Hahaha, 43
Honey, 43
Hopefully 43
House 43
However, 43
Larry 43
Me@@ 43
Mum@@ 43
Natalie 43
Per@@ 43
Someone 43
Wait, 43
\nFrank: 43
\nHelen: 43
\nJake: 43
\r\nFaith: 43
\r\nJayden: 43
\r\nLeah: 43
\r\nLeon: 43
\r\nRoy: 43
again.", 43
aila: 43
album 43
amon: 43
anytime 43
audi@@ 43
aunt 43
bak@@ 43
based 43
became 43
best, 43
bie 43
bit. 43
breakfast@@ 43
by: 43
cars 43
child@@ 43
cold. 43
conversation@@ 43
cup@@ 43
dad, 43
details@@ 43
dogs 43
et, 43
eth: 43
ew@@ 43
film@@ 43
grey 43
ice, 43
ice: 43
ichelle: 43
ies, 43
ill, 43
inf@@ 43
ino 43
ir 43
kids. 43
kk@@ 43
lad@@ 43
lately 43
laughing 43
lu@@ 43
ly's 43
mak@@ 43
nie: 43
o's 43
offer@@ 43
ok! 43
oper@@ 43
orange 43
organiz@@ 43
parents. 43
parts 43
performance 43
plac@@ 43
positive 43
ran@@ 43
screen 43
secret 43
shame 43
shi@@ 43
sister@@ 43
siz@@ 43
skin 43
stor@@ 43
student@@ 43
studies 43
style 43
swear 43
ta 43
tips 43
turning 43
update 43
wall 43
wher@@ 43
winter@@ 43
words 43
worries. 43
you?@@ 43
younger 43
!\r\nAn@@ 42
!\r\nF@@ 42
!\r\nGina: 42
!\r\nJoe: 42
!\r\nNancy: 42
"Helen: 42
"Steve: 42
"Terry: 42
% 42
7:30@@ 42
?\r\nAn@@ 42
?\r\nChloe: 42
?\r\nJess: 42
?\r\nJimmy: 42
?\r\nLeo: 42
Bi@@ 42
Chloe: 42
Claire: 42
Damn, 42
Ed 42
Fine 42
Fine, 42
Finn: 42
Fri@@ 42
Hey. 42
Jay 42
Jill 42
Liz 42
Mart@@ 42
Neither 42
Peter's 42
Thats 42
Vi@@ 42
WHAT@@ 42
\nLucy: 42
\nZ@@ 42
\r\nBarb: 42
\r\nCathy: 42
\r\nIsaac: 42
\r\nNate: 42
\r\nOlaf: 42
\r\nRalph: 42
\r\nRita: 42
\r\nSabrina: 42
\r\nTroy: 42
^@@ 42
action 42
alia: 42
all! 42
anne 42
aya: 42
babe, 42
ball@@ 42
brain@@ 42
bs 42
careful@@ 42
cheaper@@ 42
condition@@ 42
created 42
cup 42
dear, 42
delicious 42
deserve 42
difference 42
discussing 42
dollars 42
e-mail 42
e.\r\nM@@ 42
ea: 42
els 42
ement@@ 42
envy 42
fer@@ 42
forgotten 42
fr@@ 42
fun, 42
fun. 42
god, 42
innie: 42
isn’t 42
jo@@ 42
life. 42
link@@ 42
loc@@ 42
mail@@ 42
mind, 42
more, 42
mum, 42
onia: 42
onya: 42
other. 42
pity 42
pleasure@@ 42
popular 42
re. 42
respect 42
rich 42
said, 42
shared 42
sooner 42
specific 42
step 42
story@@ 42
stuff, 42
sushi 42
through@@ 42
time! 42
too.", 42
ts. 42
ue 42
view@@ 42
where?\r\n@@ 42
window 42
!\r\nRick: 41
"Andy 41
"Dan: 41
"Kevin: 41
"Luc@@ 41
"Lucy 41
"Luke 41
'd 41
...\r\nC@@ 41
.\nJ@@ 41
.\r\nFred: 41
.\r\nHannah: 41
.\r\nJulia: 41
.\r\nTina: 41
.\r\nWendy: 41
5th 41
=)@@ 41
?\nC@@ 41
?\nN@@ 41
?\r\nAbigail: 41
?\r\nNoah: 41
?\r\nO@@ 41
?\r\nRyan: 41
Amelia: 41
Big 41
Bob@@ 41
Brad 41
Bri@@ 41
Can@@ 41
Charles: 41
Definitely 41
Dor@@ 41
Ellie 41
English@@ 41
Hu@@ 41
Iv@@ 41
Jam@@ 41
Jamie 41
Joseph 41
June 41
LO@@ 41
Lucky 41
Maggie 41
Manchester 41
March 41
Nah. 41
Sat@@ 41
St. 41
Sus@@ 41
True 41
Two 41
Wha@@ 41
\nAl@@ 41
\nEmily: 41
\nJo@@ 41
\nKaren: 41
\nLucas: 41
\r\nAlexandra: 41
\r\nBert: 41
\r\nBryan: 41
\r\nCarlos: 41
\r\nCarly: 41
\r\nEl@@ 41
\r\nKuba: 41
\r\nKylie: 41
\r\nPenny: 41
\r\nSharon: 41
\r\nViolet: 41
\r\nWayne: 41
about. 41
ack: 41
anyway. 41
arriving 41
at: 41
awful@@ 41
baking 41
bank@@ 41
beauty 41
bert: 41
birthday.", 41
blu@@ 41
bon@@ 41
complain 41
cos 41
could@@ 41
cuz 41
dates 41
e.\r\nT@@ 41
each@@ 41
enna: 41
eo: 41
escape 41
everyone, 41
everything. 41
facebook 41
fault 41
form@@ 41
fri@@ 41
going, 41
he'd 41
hh@@ 41
hungry@@ 41
in' 41
ism@@ 41
laugh 41
log 41
market@@ 41
neighbor@@ 41
neighbour@@ 41
ns 41
obviously 41
ol: 41
over, 41
pal@@ 41
pen@@ 41
politic@@ 41
regarding 41
repair 41
risk 41
satisfied 41
scheduled 41
side@@ 41
sli@@ 41
somehow 41
somewhere@@ 41
sweater 41
things. 41
think? 41
time? 41
topic@@ 41
uu@@ 41
ved 41
vin: 41
woo@@ 41
!!\r\nM@@ 40
!\r\nAdam: 40
!\r\nTina: 40
"Josh: 40
"Kim 40
"Kim: 40
"Lucy: 40
"Michael 40
's.", 40
...\r\nA@@ 40
.\nM@@ 40
.\r\nAlan: 40
.\r\nAngela: 40
.\r\nFran: 40
.\r\nRuth: 40
.\r\nVictor: 40
7. 40
9.@@ 40
?\nH@@ 40
?\r\nAlan: 40
?\r\nAva: 40
?\r\nDaisy: 40
?\r\nJoan: 40
Amelia 40
Andy: 40
Angel@@ 40
Ari@@ 40
Ber@@ 40
By@@ 40
Che@@ 40
Ella 40
HA@@ 40
Here's 40
It'll 40
Liam 40
Nope. 40
Please, 40
Say 40
She’s 40
South 40
Tommy 40
Will: 40
Year@@ 40
\nFred: 40
\nLaura: 40
\nRobert: 40
\nSusan: 40
\r\nBarry: 40
\r\nJuan: 40
\r\nLynn: 40
\r\nNatalia: 40
\r\nOllie: 40
\r\nSofia: 40
\r\nUrsula: 40
actually, 40
advice@@ 40
afraid@@ 40
ali@@ 40
am.", 40
and, 40
are, 40
ary: 40
atic 40
ations. 40
ax: 40
bed. 40
bf 40
bill 40
correc@@ 40
dar@@ 40
data 40
desk 40
dison: 40
download 40
dresses 40
e?\r\nT@@ 40
ets 40
fact@@ 40
fake 40
fred: 40
future@@ 40
gay 40
grocery 40
guess. 40
had@@ 40
hea@@ 40
heavy 40
ia's 40
ianne: 40
illian: 40
invitation 40
kids, 40
laugh@@ 40
len 40
lines 40
lis@@ 40
lived 40
married@@ 40
milk@@ 40
ner@@ 40
ness@@ 40
ome@@ 40
ona 40
oo 40
paint 40
password 40
que 40
radio 40
rec@@ 40
reckons 40
ridiculous@@ 40
ry's 40
saturday 40
settled 40
shift 40
shitty 40
shop. 40
shops 40
sis@@ 40
smaller 40
sy@@ 40
tast@@ 40
term 40
tho 40
trans@@ 40
trouble@@ 40
understand. 40
wee@@ 40
will! 40
ying 40
😂😂😂@@ 40
!\r\nLinda: 39
!\r\nLisa: 39
!\r\nLucy: 39
!\r\nRob: 39
"Jeff: 39
"Joe 39
"Karen 39
"Rob: 39
%@@ 39
.\r\nJen: 39
.\r\nNancy: 39
.\r\nWill: 39
?\r\nCaroline: 39
?\r\nEthan: 39
?\r\nJune: 39
?\r\nMolly: 39
According 39
Ah@@ 39
Berlin@@ 39
Char@@ 39
Charlotte: 39
De@@ 39
France 39
Gary 39
Jim@@ 39
Long 39
Most 39
Ms 39
Patrick: 39
Please@@ 39
Right. 39
Smith: 39
Star@@ 39
Uncle 39
Wal@@ 39
Whats 39
Wish 39
Zo@@ 39
\nAdam: 39
\r\nClare: 39
\r\nDamian: 39
\r\nHanna: 39
\r\nJesse: 39
\r\nRory: 39
\r\nSid: 39
\r\nTheresa: 39
\r\nTiffany: 39
\r\nV@@ 39
accepted 39
ahead 39
ale 39
answering 39
athan 39
ation.", 39
awful 39
bal@@ 39
bathroom@@ 39
bread@@ 39
cam@@ 39
can, 39
careful 39
comp@@ 39
cream@@ 39
customer 39
dad's 39
dear! 39
delayed 39
den 39
dinner.", 39
e.\r\nB@@ 39
ean 39
ela 39
elly: 39
ered 39
ett@@ 39
everywhere@@ 39
fu@@ 39
fully 39
gen@@ 39
gie 39
grad@@ 39
hey! 39
hm@@ 39
hum@@ 39
in! 39
info@@ 39
issu@@ 39
itch@@ 39
ity, 39
j 39
kn@@ 39
li: 39
lights 39
mag@@ 39
man! 39
meat@@ 39
messages 39
moment. 39
most@@ 39
museum 39
museum@@ 39
nails 39
number. 39
ola 39
one's 39
ot 39
path@@ 39
que@@ 39
renting 39
reply 39
rist@@ 39
rit@@ 39
rock@@ 39
run@@ 39
self-@@ 39
sett@@ 39
sh, 39
sharing 39
sir@@ 39
site 39
stea@@ 39
stories 39
surprised@@ 39
sy 39
ther 39
town, 39
ugh 39
ven@@ 39
wall@@ 39
want, 39
well.", 39
woman@@ 39
yeah! 39
yla: 39
😅@@ 39
!\r\nGreg: 38
!\r\nJames: 38
"Bill: 38
"Eva: 38
"Jessica 38
"Liam: 38
"Luke: 38
-up 38
...\r\nTom: 38
.\r\nJay: 38
.\r\nJennifer: 38
.\r\nJune: 38
.\r\nLiz: 38
.\r\nStan: 38
35 38
4. 38
4th 38
5, 38
:D\n@@ 38
?\r\nBrenda: 38
?\r\nJackie: 38
?\r\nJoseph: 38
?\r\nLogan: 38
?\r\nMelissa: 38
?\r\nNatalie: 38
?\r\nRichard: 38
?\r\nRose: 38
?\r\nVictor: 38
Ac@@ 38
Alan 38
April@@ 38
Cal@@ 38
Can’t 38
Col@@ 38
Hol@@ 38
IN@@ 38
Idk 38
Is@@ 38
Jess 38
Meg 38
Otherwise 38
Pr@@ 38
Red 38
SO 38
Samantha 38
Santa 38
Sheila 38
Thai 38
These 38
True, 38
True@@ 38
Yup@@ 38
\nAlex: 38
\nAndrew: 38
\nDiana: 38
\nHenry: 38
\nLiam: 38
\nSimon: 38
\r\nAli: 38
\r\nChelsea: 38
\r\nEli: 38
\r\nFlorence: 38
\r\nFrancis: 38
\r\nIsabel: 38
\r\nRandy: 38
\r\nRoger: 38
ack@@ 38
again! 38
ail 38
ais@@ 38
ani: 38
bel@@ 38
camp@@ 38
ce@@ 38
company. 38
cross 38
def@@ 38
delete 38
deliver 38
desk@@ 38
destroyed 38
didn't@@ 38
dressed 38
dri@@ 38
dunno 38
eb: 38
ends 38
enjoy@@ 38
enough. 38
eri@@ 38
erry 38
ess: 38
excuse 38
expensive. 38
feel@@ 38
fever 38
field@@ 38
ful. 38
fun! 38
games@@ 38
hadn't 38
heard@@ 38
host 38
house, 38
huh@@ 38
ice. 38
ich@@ 38
id: 38
iley: 38
impossible@@ 38
irk: 38
ists 38
it?@@ 38
it\n@@ 38
ize 38
kidding, 38
leaves 38
led@@ 38
let’s 38
lift 38
lizabeth: 38
lunch. 38
ly? 38
minut@@ 38
model@@ 38
morning.", 38
om: 38
on? 38
onlin@@ 38
postpone 38
pretend 38
realised 38
remember, 38
roo@@ 38
same. 38
sav@@ 38
saved 38
schedule@@ 38
seats 38
smart@@ 38
stage 38
standing 38
still, 38
sto@@ 38
study@@ 38
suddenly 38
supermarket@@ 38
surgery 38
tan@@ 38
tend 38
tiny 38
tries 38
upload 38
vet 38
yet.", 38
you!\r\n@@ 38
!!!\r\nD@@ 37
!\r\nAnn: 37
"Alan: 37
"Amy 37
"Amy: 37
"Hannah 37
"Kelly: 37
"Martin: 37
"Max: 37
"Nick: 37
"Noah 37
're 37
.\r\nBrad: 37
.\r\nEva: 37
.\r\nMaria: 37
.\r\nPete: 37
.\r\nRalph: 37
.\r\nTracy: 37
.\r\nVictoria: 37
.\r\nWilliam: 37
3. 37
7:30 37
8.", 37
:)\r\nL@@ 37
?\r\nCharles: 37
?\r\nJen: 37
?\r\nMichelle: 37
?\r\nOscar: 37
Air@@ 37
Be@@ 37
Before 37
Bohemian 37
Brad@@ 37
Brexit 37
Christmas, 37
Cuba 37
Dad@@ 37
Dan@@ 37
Danny 37
Derek 37
Doesn't 37
En@@ 37
German 37
Jenn@@ 37
Melissa 37
Mike's 37
Ol@@ 37
Ruth 37
ST@@ 37
Sal@@ 37
Starbucks 37
Steven 37
Still, 37
Toby 37
Ton@@ 37
UK@@ 37
Vicky: 37
Wor@@ 37
Wow@@ 37
Yesterday 37
York@@ 37
\nDavid: 37
\nJacob: 37
\nPatrick: 37
\r\nBilly: 37
\r\nCar@@ 37
\r\nHans: 37
\r\nIvan: 37
\r\nJordan: 37
\r\nKris: 37
\r\nMiles: 37
\r\nTanya: 37
\r\nTori: 37
acc@@ 37
ah: 37
ake@@ 37
ally, 37
ance@@ 37
ari@@ 37
ash: 37
athy: 37
ative 37
ayden: 37
ban@@ 37
beat 37
bec@@ 37
before. 37
breaking 37
brilliant@@ 37
ce: 37
ches@@ 37
choosing 37
christmas 37
ck 37
client@@ 37
confused 37
contract 37
correct@@ 37
dentist@@ 37
document@@ 37
eal 37
ell 37
ely. 37
etty: 37
everything, 37
face@@ 37
father@@ 37
fault@@ 37
flu 37
free, 37
generally 37
gie: 37
gl@@ 37
hah@@ 37
hands 37
hanging 37
happened? 37
ians 37
ica: 37
ics@@ 37
ila 37
iles: 37
including 37
introduce 37
ire 37
juice 37
lack 37
lar@@ 37
leaving@@ 37
lis: 37
lo: 37
manag@@ 37
modern 37
mom, 37
n: 37
names 37
ofc 37
only@@ 37
onna: 37
opportunity 37
ordering 37
organising 37
ous! 37
parents' 37
partner 37
payment 37
possibly 37
pregnant@@ 37
probably@@ 37
provide 37
relationship@@ 37
replace 37
road@@ 37
row 37
sent@@ 37
sister's 37
slightly 37
smok@@ 37
ster 37
studied 37
style@@ 37
sup@@ 37
tax@@ 37
useful 37
ut 37
vot@@ 37
warm@@ 37
wonder@@ 37
works@@ 37
wtf@@ 37
!\r\nKevin: 36
"It 36
"Jason: 36
"Jessica: 36
"Mad@@ 36
"Sh@@ 36
"Steve 36
"Victoria: 36
( 36
...\r\nN@@ 36
.\r\nAaron: 36
.\r\nAl@@ 36
.\r\nBetty: 36
.\r\nThomas: 36
2. 36
:(((@@ 36
:)\r\nJ@@ 36
:o 36
?\r\nCarol: 36
?\r\nDorothy: 36
?\r\nI@@ 36
?\r\nJo@@ 36
?\r\nKar@@ 36
?\r\nZ@@ 36
@ 36
Bel@@ 36
Evan 36
HO@@ 36
Hel@@ 36
Henry: 36
Ill 36
Italy@@ 36
July 36
Par@@ 36
Phil 36
Ry@@ 36
Ser@@ 36
Sharpei: 36
Thx@@ 36
Trump 36
\nPatricia: 36
\r\nAbby: 36
\r\nClaudia: 36
\r\nGwen: 36
\r\nHetty: 36
\r\nIsabelle: 36
\r\nJune: 36
\r\nMarilyn: 36
\r\nMathew: 36
ace@@ 36
acey: 36
advise 36
afterwards@@ 36
ally: 36
argue 36
argument 36
arren: 36
asper: 36
assignment@@ 36
ast 36
at. 36
ber 36
biggest 36
brand@@ 36
budget 36
building@@ 36
camp 36
car.", 36
ching 36
color 36
coz 36
cro@@ 36
day.", 36
dep@@ 36
department@@ 36
dish@@ 36
dying 36
eli@@ 36
elma: 36
enny 36
exciting 36
fine.\r\n@@ 36
fits 36
gone@@ 36
gorgeous 36
government 36
guitar 36
h. 36
half@@ 36
himself@@ 36
hitting 36
ib@@ 36
ile@@ 36
instead.", 36
isha: 36
itch: 36
lay@@ 36
ling@@ 36
mas@@ 36
ment. 36
misses 36
movi@@ 36
natural 36
ne 36
never@@ 36
og@@ 36
onald: 36
original 36
ort@@ 36
p. 36
parcel 36
period 36
pictures@@ 36
pieces 36
places@@ 36
position@@ 36
posted@@ 36
pres@@ 36
proposed 36
ra: 36
rain 36
request 36
returned 36
rice 36
rik: 36
rooms 36
row@@ 36
ry. 36
salad@@ 36
sat 36
ses 36
shar@@ 36
she@@ 36
shirt@@ 36
soft 36
star 36
summer. 36
sun 36
test. 36
them? 36
this? 36
tie 36
times, 36
truth 36
u: 36
up?\r\n@@ 36
us? 36
vill@@ 36
vin 36
voice 36
ward 36
wasn’t 36
while. 36
yep 36
!\r\nKaren: 35
!\r\nMonica: 35
"Ad@@ 35
"Kelly 35
"Max 35
"Noah: 35
"Robert 35
.\nL@@ 35
.\r\nBrenda: 35
.\r\nBrian: 35
.\r\nJenny: 35
.\r\nRoger: 35
.\r\nStanley: 35
200 35
2019@@ 35
8-@@ 35
?\nPeter: 35
?\r\nHolly: 35
?\r\nKyle: 35
?\r\nMargaret: 35
AR@@ 35
ASAP@@ 35
Bella 35
Bre@@ 35
Dylan 35
Europe@@ 35
Game 35
Gi@@ 35
Han@@ 35
Ivy: 35
Joe: 35
Mel 35
Okey, 35
Perfect 35
Peter, 35
Street 35
Trevor 35
Whatever 35
William: 35
\nGreg: 35
\nJulia: 35
\nMiranda: 35
\nSophie: 35
\r\nAida: 35
\r\nAiden: 35
\r\nAria: 35
\r\nBr@@ 35
\r\nBridget: 35
\r\nDana: 35
\r\nElisabeth: 35
\r\nFreya: 35
\r\nGregory: 35
\r\nHillary: 35
\r\nHunter: 35
\r\nIvy: 35
\r\nJade: 35
\r\nMaddie: 35
\r\nRonald: 35
\r\nRosie: 35
\r\nStan: 35
ably 35
annoyed 35
anny 35
anymore, 35
ard: 35
asleep@@ 35
ator 35
attend@@ 35
ball 35
bi: 35
bottles 35
bru@@ 35
btw 35
card. 35
cards 35
carry 35
case, 35
chanc@@ 35
color@@ 35
cor@@ 35
crying 35
darling 35
days.", 35
deadlin@@ 35
deliver@@ 35
dev@@ 35
easy, 35
ence, 35
eng@@ 35
enneth: 35
eve 35
eventually 35
expensiv@@ 35
explains 35
eyes@@ 35
fat@@ 35
ff 35
fishing 35
flower@@ 35
fol@@ 35
following 35
fridge 35
fruit 35
garden@@ 35
gorgeous@@ 35
guess, 35
guitar@@ 35
hall 35
highly 35
honest, 35
hur@@ 35
ier@@ 35
ines 35
inside@@ 35
insurance 35
interesting. 35
ion, 35
ipp@@ 35
ira: 35
ised 35
joke 35
leav@@ 35
lesson@@ 35
like?\r\n@@ 35
lin 35
log@@ 35
lost@@ 35
manage@@ 35
mistake 35
moment, 35
movie. 35
mu@@ 35
mus@@ 35
named 35
nose 35
nothing, 35
nt 35
okay. 35
ooo 35
owner 35
quiet 35
re, 35
rianna: 35
room, 35
scary 35
school.", 35
screen@@ 35
sh 35
six 35
slow@@ 35
step@@ 35
stole 35
subject@@ 35
submit 35
teach@@ 35
ted@@ 35
terri@@ 35
thesis 35
tit@@ 35
tomorrow? 35
ustin: 35
viol@@ 35
wife@@ 35
writ@@ 35
yce: 35
year's 35
years, 35
yyy@@ 35
!\nS@@ 34
!\r\nHelen: 34
!\r\nJessica: 34
!\r\nJune: 34
!\r\nMartin: 34
"Am@@ 34
"Jason 34
"Jeff 34
"Lucas: 34
"Rachel 34
"Rachel: 34
"Re@@ 34
's, 34
)(@@ 34
.\r\nIan: 34
.\r\nMaggie: 34
00 34
6, 34
8pm@@ 34
:)\r\nA@@ 34
?\r\nJeremy: 34
?\r\nMona: 34
?\r\nSamantha: 34
?\r\nTerry: 34
AN@@ 34
AT@@ 34
Again@@ 34
Angela 34
Another 34
Anyways, 34
Carl: 34
Charlotte 34
European 34
High 34
ING@@ 34
Jimmy 34
Logan 34
Mari@@ 34
Mom@@ 34
NOT 34
Noah: 34
Patty: 34
Pauline 34
Russian 34
Some@@ 34
Spain@@ 34
Sunday.", 34
Suz@@ 34
Tesco@@ 34
Tri@@ 34
W 34
Wat@@ 34
Where?\r\n@@ 34
\nLeo: 34
\nMichelle: 34
\r\nChristine: 34
\r\nCristina: 34
\r\nDee: 34
\r\nEdgar: 34
\r\nFreddie: 34
\r\nJoel: 34
\r\nJosephine: 34
\r\nKitty: 34
\r\nKristen: 34
\r\nMarcus: 34
\r\nPolly: 34
\r\nRay: 34
\r\nTristan: 34
\r\nVanessa: 34
ack 34
agre@@ 34
alcohol 34
around, 34
as. 34
athan: 34
atmosphere 34
ayne: 34
battery 34
behave 34
believe@@ 34
bri@@ 34
bus. 34
central 34
cheated 34
chicken@@ 34
chosen 34
cit@@ 34
clients 34
clo@@ 34
cou@@ 34
delicious@@ 34
detail@@ 34
do? 34
drive@@ 34
easily 34
ena 34
euro@@ 34
events 34
exam. 34
field 34
fight@@ 34
gate 34
gf 34
go: 34
happening@@ 34
hmm 34
human@@ 34
ily 34
ina@@ 34
io: 34
ise@@ 34
ition 34
jacket 34
job.", 34
jun@@ 34
la@@ 34
learned 34
life, 34
liv@@ 34
lot! 34
mark 34
maths 34
medic@@ 34
mel@@ 34
must@@ 34
noon@@ 34
ong 34
online. 34
orrie: 34
oy@@ 34
pa@@ 34
perfect. 34
politics 34
pos@@ 34
price@@ 34
problems@@ 34
rad@@ 34
related 34
saf@@ 34
sea 34
she'd 34
sick, 34
so? 34
son, 34
stick@@ 34
stops 34
success@@ 34
supp@@ 34
tab@@ 34
ten@@ 34
that.", 34
things, 34
tom@@ 34
total@@ 34
tough@@ 34
uck@@ 34
ude 34
ugly 34
uri@@ 34
val@@ 34
w, 34
we'd 34
wedding. 34
wtf 34
xxxx@@ 34
yellow 34
ys 34
yyyy@@ 34
– 34
🤣 34
!!!\r\nL@@ 33
!!\r\nJ@@ 33
!\r\nBeth: 33
!\r\nEva: 33
!\r\nJenny: 33
!\r\nMax: 33
"Andrew 33
"Br@@ 33
"Dave 33
"Dave: 33
"Fiona: 33
"Jacob 33
"Martin 33
"Nancy 33
"Olivia 33
"Patrick: 33
"Pete 33
"Pete: 33
"Sue: 33
't 33
...\r\nKate: 33
.\nB@@ 33
.\r\nAn@@ 33
.\r\nAnnie: 33
.\r\nAudrey: 33
.\r\nDonna: 33
.\r\nJosh: 33
.\r\nMegan: 33
.\r\nMr. 33
.\r\nRichard: 33
.\r\nSue: 33
24 33
6. 33
:>@@ 33
?\r\nCarl: 33
?\r\nJuli@@ 33
?\r\nLarry: 33
?\r\nLiam: 33
?\r\nMarie: 33
?\r\nNicole: 33
?\r\nRalph: 33
?\r\nRuth: 33
ARE 33
Ag@@ 33
Also, 33
Bas@@ 33
Bye, 33
Cheers@@ 33
Cl@@ 33
Dad, 33
Dorothy 33
Eli@@ 33
Emil@@ 33
Eric@@ 33
Exactly, 33
Google 33
Green 33
Jeff@@ 33
Lee 33
Margaret 33
Mer@@ 33
Mik@@ 33
Must 33
Natal@@ 33
OO@@ 33
Old 33
Ollie 33
Once 33
Rom@@ 33
Sharon 33
Stephanie: 33
Sunday, 33
Tesco 33
There’s 33
Thursday. 33
Tur@@ 33
Ur 33
Were 33
Xavier: 33
YOU@@ 33
\nI@@ 33
\nPaula: 33
\r\nAn@@ 33
\r\nBethany: 33
\r\nCheryl: 33
\r\nKarl: 33
\r\nKasia: 33
\r\nMorgan: 33
\r\nTara: 33
\r\nTatiana: 33
`@@ 33
additional 33
ael: 33
ale: 33
am! 33
animals 33
ank@@ 33
apartment. 33
assume 33
atherine: 33
attack@@ 33
away, 33
basic 33
bik@@ 33
build 33
ca 33
cheating 33
chick@@ 33
city, 33
classes. 33
connection 33
contract@@ 33
cruise 33
dangerous 33
daughter@@ 33
deep 33
det@@ 33
dist@@ 33
downstairs@@ 33
drank 33
e... 33
e.\r\nK@@ 33
e?\r\nK@@ 33
ear 33
eas@@ 33
egg@@ 33
ei@@ 33
else. 33
enough, 33
everyday 33
expensive, 33
ez@@ 33
fail@@ 33
fair@@ 33
festival 33
flat. 33
friday@@ 33
funeral 33
ga: 33
grow 33
guest 33
handsome 33
here! 33
hom@@ 33
home? 33
hospital. 33
i. 33
ici@@ 33
impossible 33
instead@@ 33
internet@@ 33
invoice 33
io@@ 33
ions 33
island@@ 33
it'd 33
it... 33
itting 33
ke@@ 33
ladies 33
landed 33
lent 33
little@@ 33
lla 33
m... 33
meeting, 33
memor@@ 33
ming 33
my, 33
nois@@ 33
none 33
om 33
police@@ 33
pounds 33
prefer@@ 33
program@@ 33
record 33
rep@@ 33
ro: 33
rock 33
ry: 33
safe@@ 33
sale 33
shel@@ 33
shopp@@ 33
sister. 33
sore 33
sou@@ 33
speak@@ 33
spoken 33
stal@@ 33
station. 33
strange@@ 33
suppose@@ 33
ta: 33
tell@@ 33
ue@@ 33
uke: 33
uni 33
ustin 33
vodka 33
wallet@@ 33
watches 33
weight@@ 33
ya, 33
ye 33
zz@@ 33
😊 33
!\nD@@ 32
!\r\nDonna: 32
!\r\nJulia: 32
!\r\nOlivia: 32
!\r\nSara: 32
"Anne: 32
"Carol: 32
"Grace: 32
"Rob 32
"U@@ 32
.\nR@@ 32
.\r\nJerry: 32
.\r\nJo@@ 32
.\r\nMichelle: 32
.\r\nRon: 32
.com@@ 32
/ 32
250@@ 32
7, 32
8.@@ 32
:)\r\nD@@ 32
:30. 32
?\nJeff: 32
?\nMary: 32
?\r\nDon: 32
?\r\nMeg: 32
?\r\nVictoria: 32
AND 32
Alan: 32
Although 32
Annette: 32
Annie: 32
B-)@@ 32
Bal@@ 32
Been 32
Ben, 32
Caroline: 32
Cent@@ 32
Daniel@@ 32
Day@@ 32
Depends 32
Don 32
Ellen 32
Every@@ 32
F 32
German@@ 32
IC@@ 32
ID@@ 32
ING 32
Indeed@@ 32
Internet 32
Ital@@ 32
Ive 32
January@@ 32
Jen 32
Jesus 32
Kate: 32
Liz@@ 32
Louis 32
Mark's 32
Mark@@ 32
Mary's 32
Mike, 32
Nice! 32
Nick@@ 32
Oh. 32
Oliver: 32
Ooo@@ 32
Perhaps 32
Str@@ 32
The@@ 32
Victor: 32
Yea@@ 32
Yep! 32
\nAlice: 32
\nAmy: 32
\nGeorge: 32
\nRick: 32
\nVictoria: 32
\r\nAlicia: 32
\r\nBrett: 32
\r\nCameron: 32
\r\nEvie: 32
\r\nFrankie: 32
\r\nGeorgia: 32
\r\nGreta: 32
\r\nHiram: 32
\r\nIris: 32
\r\nJan: 32
\r\nJenna: 32
\r\nJuliette: 32
\r\nLe@@ 32
\r\nMarc: 32
\r\nMick: 32
\r\nNicky: 32
\r\nVic: 32
apples 32
at, 32
ate. 32
awesome! 32
back.", 32
baked 32
becoming 32
bucks 32
bul@@ 32
changed@@ 32
chip 32
cleaned 32
coming. 32
comments 32
continue 32
crap 32
death 32
design 32
discoun@@ 32
doesnt 32
don: 32
e?\r\nE@@ 32
episodes 32
et. 32
experienc@@ 32
fa@@ 32
fore@@ 32
found@@ 32
friendly 32
games. 32
gas 32
ge. 32
ge: 32
hairdresser 32
help.", 32
hhh@@ 32
indy: 32
interesting, 32
involved 32
ith 32
iz: 32
lady@@ 32
large 32
lim@@ 32
listen@@ 32
losing 32
loud 32
ls 32
lyn: 32
maybe, 32
meaning 32
mine, 32
mmmm@@ 32
mood@@ 32
normal@@ 32
nothing. 32
official 32
ol 32
or's 32
ord@@ 32
parent@@ 32
pray@@ 32
promise@@ 32
propose 32
reception 32
rel@@ 32
request. 32
reserve 32
rie: 32
ring@@ 32
scan 32
sees 32
sen@@ 32
sh. 32
shame@@ 32
shock@@ 32
silly 32
sorted 32
speaks 32
squ@@ 32
stays 32
subject 32
subway 32
sure? 32
than@@ 32
they’re 32
title 32
tourist@@ 32
treat@@ 32
tun@@ 32
uck 32
um, 32
various 32
wait. 32
wallet 32
war 32
wild 32
wine. 32
worst@@ 32
ynthia: 32
young@@ 32
）@@ 32
!\r\nDan: 31
!\r\nEmily: 31
!\r\nJo: 31
!\r\nLaura: 31
!\r\nSandra: 31
"Amanda 31
"Gina: 31
"Kevin 31
"Leo: 31
"Nina: 31
"Sara: 31
"Tina: 31
...I 31
.\r\nChloe: 31
.\r\nDad: 31
.\r\nJulie: 31
.\r\nLucas: 31
.\r\nSara: 31
.\r\nZoe: 31
100% 31
14 31
6.@@ 31
7pm 31
8, 31
:30 31
?\r\nAaron: 31
?\r\nAr@@ 31
?\r\nTaylor: 31
?\r\nTed: 31
Agre@@ 31
Alexis: 31
Amber 31
An 31
Anybody 31
Arthur: 31
Boo@@ 31
Bur@@ 31
CE@@ 31
CV 31
Dav@@ 31
Donald 31
Er@@ 31
Evan: 31
Exactly! 31
Fair 31
Good! 31
Heidi: 31
Hello! 31
IS 31
Inter@@ 31
Isabel 31
Isla: 31
Jan 31
Joanna 31
Johnny 31
Jordan 31
Josh: 31
Kate, 31
Lots 31
Mark, 31
Maybe, 31
Meg@@ 31
Might 31
Nathan 31
Pat: 31
Ram@@ 31
Sam's 31
Samsung 31
Sat 31
Show 31
Skype 31
Stanley: 31
Sun@@ 31
Veronica 31
Yup, 31
\nJay: 31
\nLia: 31
\nSamantha: 31
\nTracy: 31
\r\nAurora: 31
\r\nBrandon: 31
\r\nBrittany: 31
\r\nCole: 31
\r\nCrystal: 31
\r\nEd: 31
\r\nElena: 31
\r\nGeorgina: 31
\r\nGrant: 31
\r\nJeffrey: 31
\r\nJoanne: 31
\r\nKai: 31
\r\nKeegan: 31
\r\nKieran: 31
\r\nLewis: 31
\r\nNadia: 31
\r\nPeggy: 31
\r\nPoppy: 31
\r\nSasha: 31
a.m. 31
acting 31
active 31
adding 31
ade: 31
afternoon.", 31
already, 31
ane 31
anniversary 31
arm@@ 31
ary. 31
ash 31
asia: 31
author@@ 31
bath@@ 31
beginn@@ 31
blame 31
boarding 31
body@@ 31
border 31
boss@@ 31
brilliant 31
brings 31
ca@@ 31
cel@@ 31
celebrating 31
chapter 31
cle@@ 31
concerned 31
coo@@ 31
cooking@@ 31
cover@@ 31
covered 31
crowded 31
cu@@ 31
doing? 31
dud@@ 31
ect 31
ella@@ 31
enjoys 31
entertain@@ 31
esley: 31
evening.", 31
exagger@@ 31
family. 31
fb@@ 31
final@@ 31
forever@@ 31
friend's 31
friend. 31
gal@@ 31
garage 31
girl! 31
gradu@@ 31
grateful 31
grown 31
hahahaha 31
has@@ 31
hat 31
held 31
her? 31
host@@ 31
human 31
iah: 31
ian, 31
ies. 31
ight@@ 31
ily: 31
imagine@@ 31
impressed 31
inda: 31
kill@@ 31
lab@@ 31
liza: 31
location 31
major 31
material 31
miles 31
mix@@ 31
movie?\r\n@@ 31
mum's 31
na: 31
ney: 31
ofc@@ 31
onnor: 31
oris: 31
others@@ 31
ox@@ 31
plastic 31
players 31
port@@ 31
pretty@@ 31
prof@@ 31
qual@@ 31
reports 31
reunion 31
ro 31
round@@ 31
say. 31
saying@@ 31
security 31
shot 31
ski@@ 31
soci@@ 31
son's 31
specific@@ 31
ster@@ 31
storm 31
stress@@ 31
sty@@ 31
sw@@ 31
tem@@ 31
tha: 31
those@@ 31
tour 31
translate 31
turn@@ 31
understood 31
urgent 31
value 31
whom 31
year.", 31
youtube 31
😄@@ 31
😱@@ 31
!\r\nAmanda: 30
!\r\nSh@@ 30
"Bar@@ 30
"Fred: 30
"Helen 30
"Sara 30
"Sophie: 30
"Zoe: 30
.\r\nAmanda: 30
.\r\nAmelia: 30
.\r\nCharlie: 30
.\r\nJeff: 30
.\r\nKim: 30
.\r\nLogan: 30
.\r\nNathan: 30
.\r\nSean: 30
.\r\nTed: 30
10. 30
60 30
7.", 30
7.30 30
> 30
????@@ 30
?\nJack: 30
?\nJo@@ 30
?\r\nAnthony: 30
?\r\nBart: 30
?\r\nCar@@ 30
?\r\nJulie: 30
?\r\nLucas: 30
?\r\nMatthew: 30
?\r\nMr. 30
?\r\nOwen: 30
?\r\nPatricia: 30
AS@@ 30
And? 30
Blake 30
Canada 30
Carl 30
Christmas.", 30
Cindy 30
Clara 30
Claudia: 30
Count 30
Dani@@ 30
Dude, 30
EN@@ 30
Hahaha. 30
Hugh 30
Island@@ 30
Jack, 30
Jer@@ 30
Johnson: 30
Katie 30
Kev@@ 30
Lets 30
Listen, 30
Lol. 30
London. 30
Loo@@ 30
Luk@@ 30
Many 30
Mary, 30
Morning 30
NY@@ 30
National 30
Nicole 30
Park 30
Patty 30
Pol@@ 30
Rome@@ 30
Ron 30
She@@ 30
Stev@@ 30
Theresa 30
Tom: 30
WH@@ 30
Wh@@ 30
Wilson: 30
Xxx@@ 30
Yo 30
\nAnne: 30
\nMatt: 30
\nSarah: 30
\nThomas: 30
\r\nAnita: 30
\r\nErik: 30
\r\nGia: 30
\r\nHarriet: 30
\r\nHarvey: 30
\r\nJules: 30
\r\nKathy: 30
\r\nKaty: 30
\r\nMartina: 30
\r\nNat: 30
\r\nNathalie: 30
\r\nNicholas: 30
\r\nSerena: 30
\r\nU@@ 30
\r\nValerie: 30
about, 30
aby: 30
accident. 30
aden: 30
ahh 30
also@@ 30
anim@@ 30
announced 30
ap 30
apart@@ 30
approach 30
aron: 30
attending 30
aul@@ 30
ax 30
believ@@ 30
besides 30
boat 30
booking 30
broken@@ 30
brown 30
burn 30
cancelled@@ 30
charity 30
close@@ 30
closing 30
comm@@ 30
comment 30
cookies@@ 30
countries 30
cul@@ 30
deleted 30
di 30
discovered 30
drawer@@ 30
dressing 30
e.\r\nE@@ 30
ean: 30
ef@@ 30
effort 30
ek: 30
elia: 30
ese 30
eth@@ 30
exercise 30
fantastic@@ 30
favour@@ 30
fetch 30
fighting 30
freezing 30
gh 30
headache@@ 30
health@@ 30
him? 30
hol@@ 30
hoo@@ 30
husband@@ 30
ia. 30
id, 30
iest 30
ignoring 30
improve 30
ine's 30
ings. 30
io 30
ited 30
keen 30
ker 30
knowing 30
las@@ 30
law@@ 30
learn@@ 30
mate. 30
mi@@ 30
min, 30
nap@@ 30
neighbours 30
office, 30
ome 30
oss: 30
packing 30
pe 30
pea@@ 30
pics@@ 30
pleased 30
pls@@ 30
professional 30
provid@@ 30
ps@@ 30
railway 30
recipes 30
refuses 30
reschedule 30
return@@ 30
roll@@ 30
rom@@ 30
ron@@ 30
room.", 30
sa: 30
saturday@@ 30
search 30
sed. 30
sel@@ 30
shy 30
small@@ 30
smooth@@ 30
snacks 30
so! 30
soo 30
spa 30
starving@@ 30
suck 30
tal@@ 30
taxi 30
terms 30
thes@@ 30
ti: 30
traditional 30
try. 30
tv@@ 30
uli@@ 30
va 30
veg@@ 30
walked 30
weeks, 30
°@@ 30
‘@@ 30
” 30
🙂 30
🙈@@ 30
!!!!!!!!@@ 29
!\r\nBob: 29
!\r\nNick: 29
!\r\nRuth: 29
"Alan 29
"Amelia: 29
"Betty: 29
"Chloe: 29
"Fiona 29
"Jan@@ 29
"Nancy: 29
"Patricia: 29
"Rick 29
"Susan 29
"Susan: 29
"Thomas: 29
"Tony 29
...\r\nP@@ 29
.\r\nAbigail: 29
.\r\nRuby: 29
.\r\nVeronica: 29
10, 29
50% 29
7th 29
:)\r\nS@@ 29
:D:D@@ 29
:d@@ 29
?!?!@@ 29
?\r\nAna: 29
?\r\nBecky: 29
?\r\nCaron: 29
?\r\nJulian: 29
?\r\nMandy: 29
?\r\nNathan: 29
?\r\nPolly: 29
Americ@@ 29
Andrea: 29
Ash@@ 29
Bart 29
Best 29
Brex@@ 29
Central 29
Damn 29
Day 29
December@@ 29
Dian@@ 29
Dis@@ 29
Facebook@@ 29
Fi@@ 29
Francis: 29
Frank@@ 29
Fre@@ 29
Fuck@@ 29
GO@@ 29
Gran@@ 29
H 29
He’s 29
Isabella: 29
Isla 29
It@@ 29
Lar@@ 29
Louise 29
Mandy 29
Matthew 29
Merry 29
Miss 29
Mol@@ 29
Monica: 29
Mum, 29
Perfect! 29
Peter@@ 29
Po@@ 29
Ri@@ 29
Rober@@ 29
Seriously@@ 29
Shar@@ 29
Stef@@ 29
Stephen 29
Such 29
Tal@@ 29
Tam@@ 29
Ty@@ 29
\nGina: 29
\nJeremy: 29
\nMia: 29
\nO@@ 29
\nTina: 29
\r\nAnette: 29
\r\nCamilla: 29
\r\nChad: 29
\r\nFelix: 29
\r\nFrances: 29
\r\nJasmine: 29
\r\nJeniffer: 29
\r\nKeira: 29
\r\nKonrad: 29
\r\nLeila: 29
\r\nMario: 29
\r\nMindy: 29
\r\nRenee: 29
\r\nSkyler: 29
\r\nSusie: 29
ability 29
accommodation 29
ak 29
allergic 29
annoying@@ 29
ant, 29
anyways 29
anywhere@@ 29
apped 29
arranged 29
as, 29
as: 29
ason: 29
ate: 29
azz@@ 29
berry 29
best. 29
bitch 29
blue@@ 29
budget@@ 29
butter 29
buys 29
character 29
character@@ 29
chips 29
co: 29
coffee. 29
collecting 29
confirmed 29
congratulations@@ 29
contacted 29
contacting 29
control@@ 29
cour@@ 29
critic@@ 29
daily 29
damn@@ 29
dare 29
decid@@ 29
despite 29
di: 29
directly 29
e" 29
e-mail@@ 29
e?\r\nB@@ 29
ean@@ 29
early, 29
earth 29
ects 29
eee@@ 29
either. 29
elinda: 29
else? 29
ender 29
episod@@ 29
equ@@ 29
exact 29
example@@ 29
far. 29
fee@@ 29
female 29
finishes 29
g, 29
game, 29
girlfriend. 29
gosh, 29
gossip 29
grandma@@ 29
ground 29
h: 29
hal@@ 29
hated 29
helpful@@ 29
herself@@ 29
holding 29
idiot 29
ile 29
imagin@@ 29
ina, 29
issa: 29
jer@@ 29
kicked 29
ks, 29
lic@@ 29
like, 29
look, 29
lora: 29
ly.", 29
meal@@ 29
million 29
mom. 29
ne, 29
neighbour 29
notes@@ 29
nov@@ 29
obvious@@ 29
old, 29
ow 29
painting 29
particip@@ 29
pill@@ 29
pizza, 29
playing@@ 29
pool@@ 29
posts 29
pow@@ 29
predic@@ 29
pur@@ 29
questions@@ 29
r. 29
reality 29
recipe@@ 29
refus@@ 29
results@@ 29
review 29
rick: 29
s.\r\nN@@ 29
scared@@ 29
scary@@ 29
sci@@ 29
serve 29
shocked 29
sid@@ 29
similar@@ 29
sky@@ 29
sleep. 29
slowly 29
somehow@@ 29
son. 29
sorry! 29
speech 29
talks 29
task 29
thing! 29
tickets. 29
tie: 29
times. 29
trailer 29
transfer@@ 29
trick@@ 29
ually 29
ven 29
wat@@ 29
well-@@ 29
well... 29
wind@@ 29
ye@@ 29
ze@@ 29
@@ 29
🤗@@ 29
🤣@@ 29
!\nE@@ 28
!\r\nAlice: 28
!\r\nAndrew: 28
!\r\nDaniel: 28
!\r\nJacob: 28
!\r\nMarie: 28
!\r\nMatt: 28
"Abigail: 28
"Anne 28
"Donna: 28
"Eve: 28
"Jimmy: 28
"Ken: 28
"Lily: 28
"Lucas 28
"Oscar: 28
"Paula: 28
"Ron: 28
"Rose: 28
"Samantha: 28
"Sus@@ 28
"Terry 28
've 28
...\r\nG@@ 28
.\r\nBeth: 28
.\r\nGary: 28
.\r\nLena: 28
.\r\nNoah: 28
.\r\nPatricia: 28
.\r\nPatty: 28
.\r\nTrevor: 28
0 28
2, 28
8pm 28
:)))@@ 28
:)\r\nE@@ 28
:-( 28
:00. 28
:3@@ 28
:45@@ 28
?\nF@@ 28
?\r\nAmelia: 28
?\r\nAnnie: 28
?\r\nCharlotte: 28
?\r\nElizabeth: 28
?\r\nFran: 28
?\r\nKatie: 28
?\r\nLouise: 28
?\r\nSophia: 28
Bren@@ 28
CH@@ 28
Carlos 28
Chandler: 28
Croatia 28
Getting 28
Grand 28
Halloween 28
Hello. 28
Irene: 28
January 28
Justin 28
Ken 28
King 28
LA@@ 28
LOL! 28
Let’s 28
Man, 28
Meet 28
Mor@@ 28
Mrs. 28
Ok! 28
PS@@ 28
Q@@ 28
Queen 28
Reg@@ 28
Rome 28
Rosie 28
Ross 28
Sk@@ 28
UR@@ 28
Unless 28
Ven@@ 28
We’re 28
Year 28
You'd 28
\nAr@@ 28
\nCar@@ 28
\nNatalie: 28
\nSilvia: 28
\r\nAlfred: 28
\r\nArianna: 28
\r\nChandler: 28
\r\nDenise: 28
\r\nFlora: 28
\r\nHeidi: 28
\r\nJenson: 28
\r\nKinga: 28
\r\nLori: 28
\r\nMad@@ 28
\r\nMarisa: 28
\r\nMarla: 28
\r\nMarty: 28
\r\nMiley: 28
\r\nPiotr: 28
\r\nShelly: 28
\r\nUla: 28
\r\nViola: 28
\r\nZara: 28
ac 28
ace 28
activ@@ 28
actually. 28
adult 28
ailey: 28
aint 28
allowed 28
alvin: 28
ania: 28
appl@@ 28
applied 28
arah: 28
attack 28
awkward 28
aya 28
basket@@ 28
bastard@@ 28
birthday, 28
boss. 28
bought@@ 28
boyfriend. 28
bun@@ 28
burger 28
but... 28
cak@@ 28
cake@@ 28
center 28
channel 28
cheers 28
coat 28
competition 28
complicated 28
darling, 28
date. 28
dea@@ 28
deals 28
dear. 28
delivered 28
dishes 28
ds@@ 28
dumb 28
ed? 28
elec@@ 28
ences 28
ene 28
ently 28
every@@ 28
ewis: 28
exercis@@ 28
films 28
fine! 28
fit@@ 28
flav@@ 28
foot@@ 28
french 28
furniture 28
further 28
g. 28
gather@@ 28
gees 28
going? 28
gotten 28
han@@ 28
happens@@ 28
heads 28
heat 28
helpful 28
her\n@@ 28
him! 28
holidays. 28
ic. 28
ices 28
ignore 28
ikki: 28
ilde: 28
ill. 28
immediately 28
ink 28
insane@@ 28
ion. 28
isa 28
issues@@ 28
ix@@ 28
ized 28
jobs 28
journey 28
l, 28
lam@@ 28
lately. 28
lovely, 28
ming@@ 28
mum. 28
nooooo@@ 28
numbers 28
office.", 28
onnie 28
ori@@ 28
ours 28
particular@@ 28
password@@ 28
plant@@ 28
point, 28
polic@@ 28
pot 28
problem! 28
pull 28
quickly 28
reac@@ 28
realized 28
recent 28
respon@@ 28
risk@@ 28
roy: 28
ryan: 28
score@@ 28
serv@@ 28
settle 28
sexy 28
shoot@@ 28
shop, 28
someone's 28
soon! 28
sport@@ 28
surpri@@ 28
tar@@ 28
tasks 28
te 28
thre@@ 28
tired. 28
tly 28
tooth@@ 28
translation 28
trash 28
typical 28
urt: 28
vac@@ 28
vacation@@ 28
vir@@ 28
wal@@ 28
watching@@ 28
wav@@ 28
won't@@ 28
workshop 28
worried@@ 28
xxx\r\nCaron: 28
yea, 28
yess@@ 28
yesterday.", 28
ylie: 28
’ 28
☹@@ 28
!\nB@@ 27
!\r\nGrace: 27
!\r\nSteve: 27
!\r\nSusan: 27
"Abigail 27
"Angel@@ 27
"Barbara: 27
"Caroline 27
"Caroline: 27
"Diana: 27
"Ella: 27
"Jeff@@ 27
"Lily 27
"Sally: 27
"Ter@@ 27
"William: 27
...\r\nMar@@ 27
.\r\nDon: 27
.\r\nDora: 27
.\r\nGrace: 27
.\r\nJill: 27
.\r\nLee: 27
.\r\nPat: 27
.\r\nRita: 27
2moro@@ 27
6.30@@ 27
6pm@@ 27
:)) 27
:)\r\nTom: 27
?\r\nBella: 27
?\r\nDylan: 27
?\r\nErin: 27
?\r\nHeather: 27
?\r\nKen: 27
?\r\nLeah: 27
?\r\nLindsay: 27
?\r\nNicky: 27
?\r\nSonia: 27
Alexis 27
Already 27
Ana 27
Andre: 27
Becky 27
Bon@@ 27
Buy 27
Cam@@ 27
Chelsea: 27
Christine 27
City 27
Damn@@ 27
December. 27
Dublin@@ 27
Em@@ 27
Eve. 27
Fingers 27
Flo@@ 27
Frederick: 27
Girl@@ 27
Greta: 27
Irene 27
Isabel: 27
J 27
Jack's 27
Ju@@ 27
Kate's 27
Laure@@ 27
Liam: 27
Lind@@ 27
Luckily 27
MA@@ 27
Man 27
Marcus 27
Melanie 27
Mir@@ 27
November 27
Now, 27
Pi@@ 27
Por@@ 27
Robin 27
Sam, 27
September@@ 27
Shit, 27
Sophia 27
Stanley 27
Stay 27
Street@@ 27
Stu@@ 27
Swee@@ 27
Tob@@ 27
Tomorrow@@ 27
Trac@@ 27
Unfortunately, 27
Vick@@ 27
Vik@@ 27
Vincent: 27
WTF@@ 27
Walter 27
Wend@@ 27
Where's 27
White 27
Xmas@@ 27
\nAn@@ 27
\nLewis: 27
\nMarion: 27
\r\nAgatha: 27
\r\nAriana: 27
\r\nAshton: 27
\r\nCarla: 27
\r\nChuck: 27
\r\nCor@@ 27
\r\nFelicia: 27
\r\nHector: 27
\r\nJude: 27
\r\nJudith: 27
\r\nLidia: 27
\r\nLila: 27
\r\nLiv: 27
\r\nLuis: 27
\r\nMollie: 27
\r\nNelly: 27
\r\nOtto: 27
\r\nShane: 27
\r\nTrish: 27
abe: 27
add@@ 27
afterwards 27
aige: 27
ain't 27
allie: 27
amara: 27
angry@@ 27
ant. 27
ara@@ 27
ately 27
auren: 27
b. 27
badly 27
bags 27
bing 27
blow@@ 27
but, 27
camera 27
ched 27
city. 27
colleagues 27
coming, 27
connected 27
crush 27
cy@@ 27
dangerous@@ 27
definitely@@ 27
den@@ 27
died@@ 27
dies 27
dislike 27
dre@@ 27
driv@@ 27
drug 27
e?\r\nA@@ 27
eline 27
emergency 27
ents@@ 27
everywhere 27
exercises 27
exist@@ 27
explo@@ 27
fashion 27
fic@@ 27
fied 27
figured 27
flight. 27
force 27
forgot. 27
frustr@@ 27
funny, 27
gener@@ 27
gift. 27
gig 27
gold@@ 27
grow@@ 27
guest@@ 27
haha! 27
hairdresser@@ 27
hide 27
hours.", 27
iden: 27
ie. 27
illi@@ 27
impro@@ 27
in? 27
inc@@ 27
indy 27
itself 27
i’ll 27
jealous@@ 27
joined 27
joking@@ 27
ju@@ 27
jud@@ 27
judge 27
keys@@ 27
ladies@@ 27
lawy@@ 27
leo: 27
lia: 27
lies 27
lisa: 27
live@@ 27
location@@ 27
long, 27
luggage 27
manager@@ 27
may@@ 27
me... 27
meetings 27
mistak@@ 27
mm 27
month.", 27
morning! 27
mp@@ 27
mun@@ 27
na@@ 27
necessary 27
ned@@ 27
noon 27
notic@@ 27
ody: 27
omg@@ 27
onc@@ 27
operation 27
opposite 27
ourtney: 27
out! 27
outfit 27
owes 27
passing 27
person. 27
phone, 27
phones@@ 27
piano 27
place.\r\n@@ 27
plot 27
possible, 27
possible. 27
pped 27
process@@ 27
properly 27
pure 27
q@@ 27
raig: 27
recently. 27
reservation@@ 27
review@@ 27
rum@@ 27
served 27
shoot 27
sis 27
ski 27
smell 27
smoking 27
soccer 27
ss 27
started@@ 27
store. 27
stress 27
struggling 27
sts 27
support@@ 27
survi@@ 27
ter: 27
thoughts 27
tic 27
ting@@ 27
tive 27
to! 27
ucas: 27
ug@@ 27
uh@@ 27
unter: 27
ward@@ 27
x: 27
yeah... 27
you?\r\nR@@ 27
your@@ 27
´@@ 27
♀@@ 27
😒@@ 27
!!!\r\nM@@ 26
!!\r\nS@@ 26
!\nK@@ 26
!\r\nElla: 26
!\r\nEllie: 26
!\r\nFiona: 26
!\r\nJason: 26
!\r\nJoan: 26
!\r\nKen: 26
!\r\nNoah: 26
"Amelia 26
"Betty 26
"Charles 26
"Charlie: 26
"Jerry: 26
"Leo 26
"Mat@@ 26
"Patricia 26
"Rick: 26
"Sally 26
"Samantha 26
"the 26
........@@ 26
.\nG@@ 26
.\r\nClaire: 26
.\r\nEl@@ 26
.\r\nGlen: 26
.\r\nHeather: 26
.\r\nKyle: 26
000@@ 26
10% 26
500 26
?\r\nEllen: 26
?\r\nFrancis: 26
?\r\nGary: 26
?\r\nJasmine: 26
?\r\nLilly: 26
?\r\nSylvia: 26
?\r\nTommy: 26
?\r\nTyler: 26
Absolutely 26
Alexa: 26
Alexandra: 26
Ann, 26
Archie: 26
Arnold: 26
Calm 26
Claudia 26
Congrats@@ 26
Del@@ 26
Des@@ 26
Fran@@ 26
Gal@@ 26
Hurry 26
Ian: 26
Ivan: 26
Jean@@ 26
Mason 26
OK! 26
OM@@ 26
Olga 26
Olivier: 26
PC@@ 26
Pa@@ 26
Pick 26
Pizza 26
Que@@ 26
Sher@@ 26
Sorry. 26
THAT 26
Thom@@ 26
Those 26
Tyler 26
Ur@@ 26
Valentine's 26
Victor@@ 26
Walter: 26
Where@@ 26
\nDaisy: 26
\nKai: 26
\nSandra: 26
\nVictor: 26
\r\nAdri@@ 26
\r\nAlec: 26
\r\nAmelie: 26
\r\nDarcy: 26
\r\nJasper: 26
\r\nJohnny: 26
\r\nJuli@@ 26
\r\nMagda: 26
\r\nMarge: 26
\r\nMillie: 26
\r\nSimone: 26
\r\nTobias: 26
achary: 26
actual 26
adventure@@ 26
ag 26
allow 26
among 26
ania 26
anuel: 26
aul: 26
aun@@ 26
ave: 26
ba@@ 26
bles 26
brain 26
brother. 26
btw, 26
bucks@@ 26
butter@@ 26
called@@ 26
can't, 26
cast 26
chance@@ 26
characters 26
concert. 26
condition 26
day! 26
dead@@ 26
destroy 26
doctors 26
doll@@ 26
dry@@ 26
duc@@ 26
e.@@ 26
east 26
el's 26
els@@ 26
essay@@ 26
essie: 26
everyone's 26
formal 26
fro@@ 26
frustrated 26
gaming 26
ger 26
goes@@ 26
guy, 26
hhh 26
higher 26
hotel. 26
hours, 26
hypo@@ 26
icky 26
ima: 26
impression 26
ini: 26
ink@@ 26
instead. 26
itch 26
jack@@ 26
joking 26
l: 26
ld@@ 26
loose 26
lucky@@ 26
map@@ 26
mate! 26
mean? 26
medi@@ 26
member@@ 26
menu 26
model 26
mom's 26
motor@@ 26
n't. 26
ned 26
newest 26
office.\r\n@@ 26
okey@@ 26
omg, 26
omin@@ 26
ones, 26
ons@@ 26
opp@@ 26
ou 26
outside. 26
own. 26
p, 26
pants 26
partying 26
player 26
point. 26
ppl@@ 26
pract@@ 26
program 26
projects 26
proof@@ 26
push 26
realize 26
reckon 26
record@@ 26
reminding 26
rew: 26
right?@@ 26
river@@ 26
rude 26
satis@@ 26
seat@@ 26
see! 26
sh: 26
sion@@ 26
sleeping@@ 26
snowing 26
sofa 26
sometim@@ 26
story, 26
stressful 26
stri@@ 26
stro@@ 26
strugg@@ 26
studio 26
sunny 26
sweetheart@@ 26
sweets 26
task@@ 26
tbh@@ 26
tennis 26
term@@ 26
tests 26
themselves 26
therap@@ 26
thesis@@ 26
they'd 26
thin@@ 26
tight 26
tin@@ 26
to? 26
too... 26
train. 26
tu@@ 26
ual@@ 26
uber 26
ucy: 26
understanding 26
upset@@ 26
ved@@ 26
waited 26
was, 26
websit@@ 26
weeks.", 26
where's 26
wine, 26
wondered 26
working, 26
year\n@@ 26
yy@@ 26
€@@ 26
👌@@ 26
!\nT@@ 25
!\r\nAndy: 25
!\r\nCharlie: 25
!\r\nEric: 25
!\r\nOliver: 25
!\r\nTerry: 25
!\r\nTony: 25
"Ava: 25
"Brian 25
"Eric 25
"Eric: 25
"Joseph: 25
"Kyle: 25
"Margaret: 25
"Maya: 25
"Mom: 25
"Sandra 25
"Sandra: 25
"Sophie 25
"Thomas 25
.30. 25
.\nK@@ 25
.\r\nDanny: 25
.\r\nFrancis: 25
.\r\nLe@@ 25
16 25
17 25
18 25
21 25
:)\r\nJohn: 25
;-) 25
?\nJohn: 25
?\nMartha: 25
?\nMike: 25
?\r\nAlison: 25
?\r\nBarb: 25
?\r\nBobby: 25
?\r\nCindy: 25
?\r\nEllie: 25
?\r\nGemma: 25
?\r\nJamie: 25
?\r\nJoanne: 25
?\r\nJudy: 25
?\r\nNate: 25
?\r\nRon: 25
?\r\nSamuel: 25
?\r\nSeth: 25
?\r\nSidney: 25
Abigail 25
Andre@@ 25
Andrea 25
Angie 25
Anna, 25
Anne@@ 25
Anthony 25
As@@ 25
Ask 25
Awesome! 25
Boston 25
Brad: 25
Bryan 25
Carrie 25
Clara: 25
Congratulations@@ 25
Cre@@ 25
Dou@@ 25
Dre@@ 25
Either 25
Everybody 25
Everything's 25
Finn 25
Frankie: 25
Freddie: 25
Greg@@ 25
HAHAHA@@ 25
Hannah: 25
Harold: 25
Hm... 25
Instagram 25
Interest@@ 25
James@@ 25
January. 25
Jim's 25
Jul@@ 25
LOL. 25
LOVE 25
Lea@@ 25
Lol, 25
Luna 25
Matt@@ 25
Monday.", 25
Pam 25
Rebecca 25
Rebecca: 25
Shut 25
Sonia 25
Stephanie 25
Super 25
Theo 25
Thx 25
Todd 25
Tro@@ 25
Valerie: 25
Watch 25
What?! 25
YES! 25
\nAaron: 25
\nAnna: 25
\nGabi: 25
\nJanet: 25
\nJose: 25
\nMaya: 25
\nNina: 25
\nSally: 25
\r\nAda: 25
\r\nAlba: 25
\r\nAnton: 25
\r\nApril: 25
\r\nAsh: 25
\r\nBar@@ 25
\r\nCandy: 25
\r\nCody: 25
\r\nColin: 25
\r\nConor: 25
\r\nDiego: 25
\r\nDrew: 25
\r\nEliza: 25
\r\nEllis: 25
\r\nGaby: 25
\r\nGinny: 25
\r\nHayley: 25
\r\nIrma: 25
\r\nKeith: 25
\r\nKrist@@ 25
\r\nLana: 25
\r\nLuc@@ 25
\r\nMel@@ 25
\r\nMira: 25
\r\nNeil: 25
\r\nOlivier: 25
\r\nPat@@ 25
\r\nShirley: 25
\r\nThea: 25
\r\nTodd: 25
\r\nWillow: 25
\r\nWinston: 25
abby: 25
above 25
achel: 25
acy 25
adul@@ 25
agree. 25
ahead@@ 25
ain: 25
aine: 25
alcohol@@ 25
alone, 25
alone. 25
an.", 25
answers 25
apparently@@ 25
applying 25
arbara: 25
arbie: 25
arrive@@ 25
ars 25
assu@@ 25
ated, 25
ated. 25
atmosp@@ 25
avi@@ 25
basketball 25
bath 25
bea@@ 25
beg@@ 25
bert 25
bills 25
bird 25
born@@ 25
bos@@ 25
brow@@ 25
bud@@ 25
busy, 25
c: 25
calendar 25
can't. 25
carlett: 25
cha 25
chair@@ 25
chick 25
church@@ 25
clearly 25
collection 25
come.", 25
comfy 25
confident 25
convenient 25
cried 25
cry@@ 25
dark@@ 25
dd@@ 25
degrees 25
dies@@ 25
din@@ 25
discus@@ 25
disgusting 25
documents 25
does, 25
don't. 25
drinking@@ 25
dum@@ 25
eeeeeeee@@ 25
eff@@ 25
elly 25
ely, 25
emails 25
ens@@ 25
enti@@ 25
ential 25
erm@@ 25
ers.", 25
essy: 25
excit@@ 25
explain@@ 25
f, 25
fly@@ 25
forecast 25
forgive 25
fruit@@ 25
funny. 25
g: 25
gain 25
got@@ 25
group. 25
groups 25
hand, 25
happiness 25
hero@@ 25
herself. 25
hired 25
holiday. 25
hoped 25
hour, 25
hurt@@ 25
icia: 25
ify 25
ina's 25
incredible@@ 25
indeed 25
indeed. 25
ino: 25
ins@@ 25
ities@@ 25
iting 25
it’ll 25
jump 25
kiss@@ 25
know? 25
lan@@ 25
legal 25
lem@@ 25
lie's 25
likely 25
lives@@ 25
lly: 25
locked 25
lou@@ 25
mall. 25
march 25
master 25
matters 25
meals 25
memory 25
messages@@ 25
metal 25
midnight 25
might@@ 25
mon 25
months, 25
mother. 25
motiv@@ 25
ms@@ 25
music, 25
national 25
needed@@ 25
night? 25
nite 25
noise 25
ordon: 25
organized 25
ose 25
outside, 25
parents, 25
parked 25
pas@@ 25
pet 25
pizz@@ 25
place? 25
plant 25
pocket@@ 25
polish@@ 25
president 25
printer 25
prob 25
process 25
products@@ 25
public@@ 25
question, 25
released 25
remembered 25
safer 25
salad 25
salmon 25
saus@@ 25
seat 25
secret@@ 25
sha: 25
srsly 25
ste@@ 25
stressed@@ 25
studying@@ 25
swim 25
t.", 25
ta@@ 25
tag 25
tain 25
tbh 25
teacher. 25
texts 25
theme 25
thn@@ 25
tickets, 25
til@@ 25
tiv@@ 25
treating 25
tree 25
tren@@ 25
ture@@ 25
ual 25
ump@@ 25
unfortunately@@ 25
university@@ 25
usual. 25
vic@@ 25
wait! 25
wash@@ 25
wine.", 25
world. 25
wow! 25
xoxo@@ 25
xx\r\nCaron: 25
yan: 25
yay@@ 25
you... 25
youll 25
’ll 25
😉 25
😛@@ 25
🙄@@ 25
!\r\nCarol: 24
!\r\nKar@@ 24
!\r\nRachel: 24
!\r\nRory: 24
"Barbara 24
"Bill 24
"Carol 24
"Claire 24
"Eva 24
"Ger@@ 24
"Julie: 24
"Lind@@ 24
"Lou@@ 24
"Mel@@ 24
"Natalie 24
"Natalie: 24
"Oscar 24
"Sean: 24
"Sue 24
"Tina 24
"Tony: 24
"Will: 24
"Zoe 24
...\r\nAn@@ 24
...\r\nJo@@ 24
.\nC@@ 24
.\r\nJudy: 24
.\r\nLilly: 24
.\r\nSheila: 24
000 24
2-3 24
28 24
300 24
6pm 24
80 24
:)\r\nAnna: 24
:30@@ 24
:45 24
;)\r\nL@@ 24
;P@@ 24
<file_photo>\r\nD@@ 24
<file_photo>\r\nL@@ 24
<file_video> 24
??\n@@ 24
?\nTim: 24
?\r\nDad: 24
?\r\nEvelyn: 24
?\r\nJustin: 24
Adele: 24
Adrian 24
Alex, 24
Arabella: 24
Barb@@ 24
Bea@@ 24
Bett@@ 24
Brenda 24
China 24
Chris, 24
Christian 24
Christopher 24
Cia@@ 24
Coming 24
David's 24
Domin@@ 24
Dr 24
Dr. 24
EL@@ 24
ET@@ 24
Exactly 24
February@@ 24
Freya: 24
Grac@@ 24
Grand@@ 24
Greece 24
HR 24
Hor@@ 24
How’s 24
IKEA 24
Isabella 24
Jean 24
Kind@@ 24
Life 24
Log@@ 24
Lor@@ 24
Mag@@ 24
Mas@@ 24
May, 24
Mexico 24
Miranda 24
Much 24
Museum 24
NO 24
New@@ 24
Noel: 24
OF 24
Olga: 24
PC 24
Poland. 24
Quentin: 24
Ruby 24
Sm@@ 24
Super@@ 24
Taylor 24
Thanksgiving 24
They've 24
Tru@@ 24
Tuesday, 24
Unfortunately 24
Until 24
Vanessa 24
Veronica: 24
Violet: 24
X 24
\nAgnes: 24
\nBecky: 24
\nChris: 24
\nEmma: 24
\nLarry: 24
\nLee: 24
\nRoss: 24
\nTony: 24
\nWendy: 24
\r\nAl: 24
\r\nAndre: 24
\r\nCarlie: 24
\r\nCarolyn: 24
\r\nCynthia: 24
\r\nErick: 24
\r\nFrederick: 24
\r\nJoey: 24
\r\nJorge: 24
\r\nJoy: 24
\r\nLizzy: 24
\r\nOlive: 24
\r\nPaige: 24
\r\nRegina: 24
\r\nStacey: 24
\r\nTravis: 24
\r\nYannick: 24
abel: 24
about? 24
academic 24
account. 24
action@@ 24
ada: 24
afternoon, 24
ama 24
amantha: 24
amaz@@ 24
amil: 24
amp@@ 24
ance: 24
anniversary@@ 24
anything? 24
aomi: 24
ard, 24
arrived@@ 24
asshole@@ 24
attrac@@ 24
awww@@ 24
backpack 24
banana 24
bday 24
bear@@ 24
best! 24
bin 24
birth 24
ble. 24
bless 24
buddy@@ 24
by, 24
caf@@ 24
camer@@ 24
care. 24
cares 24
chang@@ 24
cinema. 24
cope 24
crack@@ 24
ct@@ 24
curious@@ 24
dad. 24
delay 24
dem@@ 24
deposit 24
der. 24
deserves 24
ding@@ 24
direc@@ 24
divorc@@ 24
draw 24
dro@@ 24
drow@@ 24
e.\r\nC@@ 24
eborah: 24
elanie: 24
election 24
electric 24
elix: 24
elling 24
em 24
essa: 24
ester: 24
exc@@ 24
experience@@ 24
fab@@ 24
fact, 24
fall@@ 24
families 24
favor@@ 24
fing@@ 24
finished@@ 24
flo@@ 24
followed 24
fond 24
fuck, 24
ging 24
go.", 24
go? 24
gold 24
grade 24
grandma's 24
grap@@ 24
grew 24
h! 24
ha. 24
hahahah 24
hard, 24
heating 24
heav@@ 24
hen 24
hilarious@@ 24
histor@@ 24
hurry@@ 24
ial 24
ichael: 24
id. 24
idia: 24
ii@@ 24
include 24
induction 24
ing: 24
insan@@ 24
instructions 24
interest@@ 24
invitation@@ 24
issy: 24
it.\r\nM@@ 24
ition@@ 24
jam 24
jokes 24
ke: 24
km 24
knowledge 24
landing 24
like. 24
lit 24
lock 24
lock@@ 24
lol. 24
loss@@ 24
luck, 24
many@@ 24
math@@ 24
meet. 24
member 24
mer 24
mistake@@ 24
mother's 24
mother, 24
mountains 24
nail@@ 24
netflix 24
news. 24
nightmare 24
number, 24
ny@@ 24
officially 24
ominic: 24
once. 24
ong@@ 24
onto 24
os: 24
ose: 24
oss 24
oun@@ 24
parties 24
partner@@ 24
ped 24
photos@@ 24
pie 24
piec@@ 24
pil@@ 24
pleasant 24
promotion 24
proposes 24
quickly@@ 24
quiet@@ 24
refer@@ 24
referendum 24
reminded 24
rest. 24
restaurants 24
ri: 24
role 24
rough 24
ruin 24
scr@@ 24
secre@@ 24
sell@@ 24
serious? 24
sis, 24
smoke 24
snea@@ 24
straight@@ 24
sugar 24
suggestion@@ 24
system@@ 24
talk. 24
team. 24
tes@@ 24
thir@@ 24
ties 24
tight@@ 24
tomato 24
training@@ 24
try, 24
u. 24
u? 24
una: 24
v: 24
views 24
was. 24
wasted 24
website@@ 24
weekends 24
whereas 24
while, 24
whit@@ 24
win: 24
wind 24
wore 24
worse, 24
wr@@ 24
xDD@@ 24
ye, 24
yesterday's 24
yl 24
ł@@ 24
😘 24
🙏@@ 24
!\nA@@ 23
!\nMar@@ 23
!\r\nAmy: 23
!\r\nBetty: 23
!\r\nEl@@ 23
!\r\nMaria: 23
!\r\nOscar: 23
!\r\nRuby: 23
"Bella: 23
"Claire: 23
"Eve 23
"Fred 23
"Gina 23
"Jeremy: 23
"Liam 23
"Lilly: 23
"Nina 23
"Pat@@ 23
"Patrick 23
"Phil 23
"Ryan: 23
"Simon: 23
"There's 23
"Tracy: 23
"Victoria 23
))@@ 23
)/@@ 23
......@@ 23
.\nT@@ 23
.\r\nEdward: 23
.\r\nElla: 23
.\r\nJamie: 23
.\r\nJoan: 23
.\r\nJoanna: 23
.\r\nLeah: 23
.\r\nMason: 23
.\r\nNatalie: 23
.\r\nWalter: 23
10-@@ 23
100%@@ 23
11. 23
21st 23
4, 23
5.", 23
5.@@ 23
6:30@@ 23
7.30@@ 23
7pm@@ 23
9. 23
9pm@@ 23
<file_@@ 23
<file_gif>\n@@ 23
<file_link>@@ 23
?\nJames: 23
?\nKim: 23
?\r\nAd@@ 23
?\r\nAnita: 23
?\r\nEl@@ 23
?\r\nEli: 23
?\r\nJanice: 23
?\r\nJudith: 23
?\r\nLizzy: 23
?\r\nMarta: 23
?\r\nRebecca: 23
?\r\nY@@ 23
Ali 23
App@@ 23
Aren't 23
Audrey 23
Barcelona 23
Bruce 23
Carrie: 23
Coo@@ 23
Dad's 23
Dean 23
Ethan@@ 23
Evelyn 23
FB 23
FIFA 23
Fab@@ 23
Frances: 23
Girls 23
Hah, 23
Hailey: 23
Hal@@ 23
Ham@@ 23
Hang 23
Hea@@ 23
Holly 23
Hun@@ 23
Irish 23
Isa: 23
Italian@@ 23
Jay@@ 23
Johnny: 23
Jord@@ 23
Jos@@ 23
Josh@@ 23
Jun@@ 23
Leah 23
MA 23
Max@@ 23
Morning@@ 23
NOW@@ 23
Nice. 23
OOOO@@ 23
Okey. 23
Oli@@ 23
Ow@@ 23
Phil@@ 23
Philip 23
Portugal 23
Q 23
Rly? 23
Rob, 23
Roger 23
Rory 23
Ru@@ 23
Sandy 23
Si@@ 23
Sky@@ 23
Sleep 23
Thailand 23
That'd 23
Thea: 23
There@@ 23
Tom. 23
Trav@@ 23
Uhm, 23
Valent@@ 23
Veg@@ 23
Waiting 23
Wonder@@ 23
Xavier 23
Yv@@ 23
\nAli: 23
\nBarry: 23
\nDave: 23
\nFiona: 23
\nFreddie: 23
\nJoe: 23
\nKimberly: 23
\nLily: 23
\nMel: 23
\nNatasha: 23
\nSean: 23
\nToby: 23
\r\nAddison: 23
\r\nAllie: 23
\r\nAlyssa: 23
\r\nBea: 23
\r\nBoris: 23
\r\nBritney: 23
\r\nCalvin: 23
\r\nCate: 23
\r\nClem: 23
\r\nCoco: 23
\r\nDaryl: 23
\r\nDennis: 23
\r\nEd@@ 23
\r\nHarold: 23
\r\nHope: 23
\r\nHoward: 23
\r\nJared: 23
\r\nJohn@@ 23
\r\nJonas: 23
\r\nKar@@ 23
\r\nMarcin: 23
\r\nRaphael: 23
\r\nTimmy: 23
\r\nWilson: 23
abrielle: 23
access@@ 23
ach 23
addic@@ 23
advised 23
age: 23
aged 23
ahaha@@ 23
ail: 23
airport. 23
aith: 23
alway@@ 23
ance, 23
apologize 23
arc@@ 23
are! 23
arre@@ 23
article@@ 23
ary, 23
asap 23
ating, 23
ator@@ 23
attitud@@ 23
ature 23
av: 23
avo@@ 23
awkward@@ 23
ayden 23
baby. 23
bear 23
beef 23
better.", 23
blo@@ 23
booze 23
boring. 23
broken. 23
bullshit@@ 23
charger 23
chees@@ 23
class.", 23
come? 23
comic 23
confid@@ 23
congrats 23
continu@@ 23
couch 23
damn, 23
death@@ 23
decor@@ 23
disappoint@@ 23
doub@@ 23
drill@@ 23
drug@@ 23
dunno@@ 23
e?\r\nJo@@ 23
ears 23
ecky: 23
eg: 23
ennis: 23
eryl: 23
exciting@@ 23
exhibition@@ 23
express 23
ext@@ 23
ey, 23
fail 23
first.", 23
fli@@ 23
forced 23
ford 23
forever 23
freak@@ 23
fuckin 23
full@@ 23
fund@@ 23
gel@@ 23
gf@@ 23
girl. 23
go! 23
going. 23
grandmother 23
gri@@ 23
haha. 23
haircut@@ 23
have. 23
hire 23
hob@@ 23
ignored 23
iley 23
in.", 23
influence 23
informed 23
ini 23
ip 23
ira 23
island 23
it?\r\nD@@ 23
itty: 23
ja 23
kin@@ 23
king@@ 23
lactose 23
lawyer 23
left, 23
lem: 23
letter@@ 23
links 23
list. 23
marks 23
married. 23
mechan@@ 23
members 23
mirac@@ 23
mixed 23
myself. 23
non 23
normally 23
number.", 23
options@@ 23
ory@@ 23
ouch@@ 23
ound@@ 23
party? 23
personal@@ 23
pictures. 23
plants 23
platform 23
polit@@ 23
potatoes 23
presid@@ 23
print@@ 23
prot@@ 23
prove 23
pun@@ 23
raise 23
re-@@ 23
reached 23
realise 23
recall 23
recei@@ 23
recip@@ 23
recommendation@@ 23
recommendations 23
recorded 23
refused 23
release 23
rent@@ 23
repeat 23
rev@@ 23
revis@@ 23
ridget: 23
ris 23
ristina: 23
rn@@ 23
roads 23
roof 23
s...\r\n@@ 23
sen 23
setting 23
shifts 23
sightseeing 23
sist@@ 23
slipp@@ 23
sooooo 23
spam 23
spends 23
spots 23
staff@@ 23
stomach 23
stood 23
storm@@ 23
strong@@ 23
sugar@@ 23
suggest@@ 23
supermarket 23
suspects 23
suspic@@ 23
swee@@ 23
sweeti@@ 23
t? 23
tail@@ 23
theyre 23
title@@ 23
tons 23
transport 23
trees 23
ture 23
udrey: 23
uel 23
unhappy 23
useless 23
uth: 23
va: 23
val 23
white@@ 23
wom@@ 23
workers 23
wouldn’t 23
xmas 23
yann: 23
yle: 23
you?\r\nD@@ 23
z: 23
😊😊@@ 23
😋@@ 23
😭@@ 23
🙄 23
🙌@@ 23
!!\r\nK@@ 22
!\r\nFred: 22
!\r\nGary: 22
!\r\nJoseph: 22
!\r\nMona: 22
!\r\nRenee: 22
!\r\nRobert: 22
!\r\nSean: 22
"According 22
"Agnes: 22
"Charlie 22
"Daisy: 22
"Diana 22
"Gabri@@ 22
"Grace 22
"Jennifer: 22
"Jill: 22
"Joseph 22
"Matthew 22
"Matthew: 22
"Phil: 22
...\r\nJosh: 22
.\r\nAnne: 22
.\r\nAshley: 22
.\r\nEdgar: 22
.\r\nEthan: 22
.\r\nLarry: 22
.\r\nLouise: 22
.\r\nMad@@ 22
.\r\nSuzanne: 22
.\r\nTara: 22
.\r\nTerry: 22
1000 22
13 22
19 22
19th 22
27 22
3pm@@ 22
5% 22
9pm 22
<file_photo>, 22
?\nAnn: 22
?\nJenny: 22
?\nSarah: 22
?\r\nDanny: 22
?\r\nDiane: 22
?\r\nJessie: 22
?\r\nJordan: 22
?\r\nMiranda: 22
?\r\nPam: 22
?\r\nRobin: 22
?\r\nSebastian: 22
?\r\nTodd: 22
?\r\nTrevor: 22
?\r\nVeronica: 22
Agatha 22
Alexander: 22
Ali@@ 22
Anna's 22
Awesome, 22
Bad 22
Bec@@ 22
Bern@@ 22
Besides, 22
Bt 22
Christian: 22
Christine: 22
Clare 22
David@@ 22
Dep@@ 22
Diego 22
Dom@@ 22
EA@@ 22
ED 22
EE@@ 22
Emma's 22
Feel 22
Finally 22
Florence 22
Forget 22
Hahahaha@@ 22
Harper: 22
Hil@@ 22
Home 22
Im@@ 22
Jas@@ 22
Johnson 22
Kir@@ 22
Lan@@ 22
Lauren 22
Leon@@ 22
MY 22
Mona 22
Ms. 22
NYC@@ 22
Nate 22
Om@@ 22
Oscar@@ 22
Paul's 22
Pea@@ 22
Penny 22
Perfect. 22
Play@@ 22
Polly 22
RO@@ 22
Red@@ 22
Right! 22
Rita 22
Rub@@ 22
Sammy 22
Sar@@ 22
Stan 22
TV. 22
Ta@@ 22
Theo: 22
Till 22
Today@@ 22
Trump@@ 22
Trust 22
Tu@@ 22
Vanessa: 22
Viv: 22
WW@@ 22
Walt: 22
War 22
Whit@@ 22
YES 22
Yess@@ 22
\nAmanda: 22
\nDylan: 22
\nEvan: 22
\nIrene: 22
\nMarie: 22
\nStella: 22
\r\nAb@@ 22
\r\nAlly: 22
\r\nAnnette: 22
\r\nBailey: 22
\r\nBeatrice: 22
\r\nCasper: 22
\r\nDoreen: 22
\r\nDoug: 22
\r\nEddie: 22
\r\nGill: 22
\r\nJanek: 22
\r\nJonah: 22
\r\nKane: 22
\r\nKarin: 22
\r\nKian: 22
\r\nLawrence: 22
\r\nLexi: 22
\r\nLibby: 22
\r\nMarshall: 22
\r\nNevaeh: 22
\r\nPriti: 22
\r\nRachael: 22
\r\nRaymond: 22
\r\nRoman: 22
\r\nRosa: 22
\r\nSammy: 22
\r\nTerrence: 22
ab 22
absolute 22
ada 22
ads 22
ages, 22
ago.", 22
agreement 22
aina: 22
ake: 22
alarm 22
alive 22
allows 22
amela: 22
angel@@ 22
argu@@ 22
arguing 22
ata 22
atalie: 22
ating. 22
ativ@@ 22
attended 22
available. 22
avid: 22
awesome. 22
babies 22
beautiful, 22
beer. 22
bie: 22
bike@@ 22
biology 22
blind 22
blocked 22
blog 22
blonde 22
books, 22
boss, 22
breaks 22
by. 22
cancer 22
cell@@ 22
cli@@ 22
clock 22
clothes, 22
communicate 22
consider@@ 22
crazy, 22
creative 22
creepy 22
crowd@@ 22
cru@@ 22
cruel@@ 22
culture 22
deal. 22
del@@ 22
direct 22
dith: 22
doctor's 22
dog. 22
dok@@ 22
doors 22
downtown 22
e.\r\nMar@@ 22
ecilia: 22
een 22
eggie: 22
emotion@@ 22
ennifer: 22
entranc@@ 22
ernie: 22
eslie: 22
ett: 22
euro 22
ever, 22
ex: 22
fantasy 22
filled 22
find@@ 22
fired 22
football@@ 22
games, 22
garlic 22
gay@@ 22
gee@@ 22
gentle@@ 22
gett@@ 22
gifts@@ 22
girlfriend, 22
gloves 22
graph@@ 22
groceries 22
gym, 22
headphones 22
here? 22
heresa: 22
hers 22
himself. 22
his@@ 22
honey. 22
houses 22
hows 22
hun 22
ics. 22
ident@@ 22
ilda 22
illa: 22
independ@@ 22
initi@@ 22
international 22
is.", 22
it?\r\nS@@ 22
italian 22
ite. 22
items 22
kg 22
kidding? 22
kitt@@ 22
le's 22
les, 22
library. 22
lor@@ 22
luckily 22
me?\r\n@@ 22
mental 22
mid-@@ 22
milia: 22
mix 22
mod@@ 22
n't 22
nah 22
nasty 22
national@@ 22
nowadays@@ 22
obbie: 22
offer. 22
ogan: 22
ohh 22
ollie: 22
os, 22
out? 22
oven 22
paid@@ 22
pair@@ 22
pin@@ 22
posting 22
present. 22
presentation. 22
press 22
pressure@@ 22
pupp@@ 22
purple 22
ran: 22
ref@@ 22
remove 22
restaurant. 22
reviews 22
ris@@ 22
rul@@ 22
rush@@ 22
s?\n@@ 22
salary 22
same, 22
sec 22
see... 22
sensitive 22
shed 22
should, 22
sie 22
sof@@ 22
solution 22
something? 22
sometime 22
spicy 22
sport 22
ston@@ 22
suck@@ 22
suggestions 22
suitable 22
supper 22
survive 22
swear@@ 22
t-@@ 22
take@@ 22
tel@@ 22
theatre@@ 22
thoughts@@ 22
tired, 22
toil@@ 22
totally@@ 22
tro@@ 22
trust@@ 22
u'll 22
uba: 22
ubrey: 22
udy: 22
ugly@@ 22
umm@@ 22
unsure 22
usual, 22
ute 22
vegan@@ 22
vegetables 22
village 22
wasnt 22
weekend? 22
welcome. 22
wet 22
whose 22
wis@@ 22
wise 22
witch@@ 22
wo@@ 22
wonderful@@ 22
wor@@ 22
xmas@@ 22
y... 22
year-old 22
yet? 22
you?\r\nC@@ 22
yr 22
’d 22
’ve 22
☺@@ 22
❤@@ 22
😏@@ 22
😕@@ 22
!!\r\nB@@ 21
!\r\nAlan: 21
!\r\nAngela: 21
!\r\nDavid: 21
!\r\nHenry: 21
!\r\nJulie: 21
!\r\nMichelle: 21
!\r\nNina: 21
!\r\nWendy: 21
"Amber: 21
"Beth: 21
"Brad: 21
"Brian: 21
"Charles: 21
"He 21
"I 21
"Jay: 21
"Joanna: 21
"Kat@@ 21
"Lilly 21
"Mag@@ 21
"Richard: 21
"Rose 21
"Sean 21
"Wendy 21
"Wendy: 21
'. 21
'cause 21
-up@@ 21
.\nD@@ 21
.\nN@@ 21
.\r\nCharles: 21
.\r\nDarren: 21
.\r\nGer@@ 21
.\r\nLily: 21
.\r\nRobin: 21
.\r\nV@@ 21
1. 21
15th 21
20th 21
2day@@ 21
3, 21
3000@@ 21
500@@ 21
8:30 21
:)\r\nKate: 21
:5@@ 21
:D\r\nKate: 21
;>@@ 21
<file_photo>\n@@ 21
?(@@ 21
?\nAn@@ 21
?\nTerry: 21
?\r\nPenny: 21
?\r\nRe@@ 21
?\r\nTimmy: 21
AL@@ 21
Aaron 21
Albert 21
Alex's 21
Almost 21
Amy's 21
August@@ 21
Benjamin 21
Bet@@ 21
Bloody 21
Bor@@ 21
Bry@@ 21
Cher@@ 21
Claudi@@ 21
Cle@@ 21
Costa 21
Cuba. 21
DI@@ 21
David, 21
Definitely@@ 21
Der@@ 21
EX@@ 21
Edward 21
Excell@@ 21
February. 21
Francis 21
Francis@@ 21
Georgi@@ 21
Germany 21
Goo@@ 21
Guy@@ 21
Haha! 21
Hailey 21
Harry@@ 21
Head 21
Heather 21
IL@@ 21
Id 21
Imagine 21
Ir@@ 21
Italy, 21
Jacob@@ 21
Jane's 21
Joh@@ 21
Jon@@ 21
Jonathan 21
Jose 21
Kind 21
Krist@@ 21
Little 21
Lizzy 21
Lon@@ 21
Lou@@ 21
Lovely 21
Maggi@@ 21
Makes 21
March. 21
Mario 21
Mick 21
Monday, 21
Monica's 21
NY 21
Noooo@@ 21
October 21
On@@ 21
Out 21
Paris. 21
Pauline: 21
Pe@@ 21
Petra: 21
Poppy 21
Portug@@ 21
Pri@@ 21
Rad@@ 21
Rhapsody@@ 21
Rick@@ 21
Sad@@ 21
Sand@@ 21
Se@@ 21
Sebastian 21
Son@@ 21
Star 21
Uni 21
Ursula: 21
Val: 21
Vicki: 21
Viola: 21
Vivi@@ 21
What, 21
\nAdrian: 21
\nBetty: 21
\nCindy: 21
\nDan: 21
\nDerek: 21
\nFinn: 21
\nHarry: 21
\nJonathan: 21
\nMartin: 21
\nMolly: 21
\nNancy: 21
\nOscar: 21
\nRuby: 21
\nSylvia: 21
\r\nBradley: 21
\r\nCamila: 21
\r\nCiara: 21
\r\nClarisse: 21
\r\nDeclan: 21
\r\nDom: 21
\r\nFabian: 21
\r\nFran: 21
\r\nHazel: 21
\r\nIda: 21
\r\nQuinn: 21
\r\nStephen: 21
\r\nTatum: 21
\r\nVince: 21
\r\nZach: 21
abs@@ 21
accidentally 21
activities 21
advice. 21
aggie: 21
also, 21
altern@@ 21
amil@@ 21
ances 21
and: 21
angry, 21
ania@@ 21
ann: 21
ao@@ 21
apologiz@@ 21
application 21
arcy: 21
asha 21
atilda: 21
ational 21
ations, 21
atives 21
attached 21
aylee: 21
az 21
b, 21
baseball 21
bat@@ 21
batter@@ 21
bday@@ 21
bed, 21
bedroom@@ 21
bee@@ 21
bits 21
block 21
bottom 21
brid@@ 21
burger@@ 21
burnt 21
cases 21
catching 21
chil@@ 21
cinem@@ 21
class, 21
cleaner 21
click 21
co-@@ 21
comfortable@@ 21
compani@@ 21
compet@@ 21
complains 21
concer@@ 21
concerning 21
contact@@ 21
conv@@ 21
convinc@@ 21
copies 21
corner@@ 21
couldnt 21
counting 21
coup@@ 21
crash@@ 21
date, 21
ded 21
degre@@ 21
delivery@@ 21
details. 21
did! 21
digital 21
disappear@@ 21
distance 21
do: 21
don 21
draw@@ 21
dread@@ 21
drop@@ 21
drove 21
dy, 21
e?\r\nN@@ 21
ebastian: 21
eed 21
ef 21
eil: 21
ell, 21
en! 21
ency 21
end, 21
engaged 21
enz@@ 21
eoff: 21
ero@@ 21
etta: 21
ev: 21
evin: 21
excellent 21
ez 21
fab 21
fair, 21
far, 21
favour 21
few@@ 21
fie: 21
fy@@ 21
game.", 21
gas@@ 21
ged@@ 21
ggy 21
gnes 21
gnes: 21
grav@@ 21
handsome@@ 21
hangover@@ 21
have, 21
haven't@@ 21
hawn: 21
hearing 21
hesit@@ 21
history@@ 21
horrible, 21
house.", 21
ically@@ 21
ichard: 21
idea.", 21
idk@@ 21
iego: 21
ign@@ 21
iko: 21
ileen: 21
ily@@ 21
imothy: 21
ine. 21
insists 21
instruc@@ 21
int 21
jan@@ 21
jet 21
jogging 21
keys. 21
kil@@ 21
know.. 21
knows@@ 21
lead 21
lectures 21
level@@ 21
listened 21
load 21
load@@ 21
long. 21
longer@@ 21
lunch, 21
lyssa: 21
mar: 21
massage 21
match. 21
mates 21
ment, 21
mes@@ 21
mmm@@ 21
mouth@@ 21
my's 21
name. 21
nar@@ 21
negoti@@ 21
nervous@@ 21
netflix@@ 21
niec@@ 21
night! 21
nit@@ 21
obvious 21
once, 21
onny 21
oon 21
oooo 21
orders 21
ori 21
ough@@ 21
oul@@ 21
ourselves 21
ously 21
p! 21
page@@ 21
pancakes 21
person, 21
photos. 21
pills 21
pity, 21
pity@@ 21
poo@@ 21
potential 21
precious 21
pret@@ 21
pril: 21
profess@@ 21
promot@@ 21
purpose@@ 21
rarely 21
relax, 21
respect@@ 21
result 21
ric: 21
ridiculous 21
riding 21
rista: 21
rn 21
rolls 21
ron 21
rud@@ 21
rum 21
ryce: 21
s.\r\nC@@ 21
sailing 21
scene 21
seri@@ 21
sexual 21
sheet 21
shouting 21
sie: 21
signing 21
silly@@ 21
smar@@ 21
south 21
spoil@@ 21
square 21
st. 21
sunday 21
sweat@@ 21
talking@@ 21
tasty 21
teachers 21
that'd 21
thr@@ 21
til 21
tou@@ 21
tra 21
traffic. 21
treated 21
true! 21
ty, 21
uck: 21
unusual 21
updat@@ 21
uri: 21
ustine: 21
wanting 21
way.", 21
when's 21
why?\n@@ 21
wonders 21
words@@ 21
work? 21
yee@@ 21
yourself, 21
you’ve 21
ze 21
💪@@ 21
😢@@ 21
😩@@ 21
!!\r\nD@@ 20
!\nN@@ 20
!\r\nEthan: 20
!\r\nJay: 20
!\r\nLe@@ 20
!\r\nLeo: 20
!\r\nLiam: 20
!\r\nMaya: 20
!\r\nRon: 20
"Aaron: 20
"Ashley: 20
"Con@@ 20
"In 20
"Jennifer 20
"Lena: 20
"Li@@ 20
"Meg: 20
"Nicole: 20
"Pat 20
"Pat: 20
"Patty: 20
"Suz@@ 20
"Will 20
.\nE@@ 20
.\r\nAl: 20
.\r\nAm@@ 20
.\r\nCam: 20
.\r\nDerek: 20
.\r\nDorothy: 20
.\r\nJackie: 20
.\r\nJess: 20
.\r\nPenny: 20
.\r\nPolly: 20
.\r\nRory: 20
.\r\nSharon: 20
1.@@ 20
1000@@ 20
456@@ 20
5.30@@ 20
5:30@@ 20
600@@ 20
:)\r\nK@@ 20
:)\r\nM@@ 20
:)\r\nPeter: 20
:15@@ 20
:D\r\nPeter: 20
:D\r\nTom: 20
:p 20
:‑@@ 20
<gif>@@ 20
?\nEmily: 20
?\nLiam: 20
?\r\nAmber: 20
?\r\nBar@@ 20
?\r\nCarmen: 20
?\r\nGabriel: 20
?\r\nIsla: 20
?\r\nLe@@ 20
?\r\nLee: 20
?\r\nRita: 20
?\r\nRory: 20
?\r\nScott: 20
AY@@ 20
America 20
BTW 20
Ban@@ 20
Ben's 20
Besides 20
Brit@@ 20
Btw 20
Btw, 20
CU@@ 20
Carmen 20
Chri@@ 20
Christina: 20
Congrats 20
Cooper: 20
Couldn't 20
Cracow 20
D. 20
Deb@@ 20
ER 20
Elizabeth 20
Emm@@ 20
Emma, 20
Enjoy@@ 20
Eve: 20
FB@@ 20
FU@@ 20
Francesca: 20
Fuck, 20
Girls, 20
HAHA@@ 20
Halloween@@ 20
Having 20
Hell 20
Hmm... 20
Hon@@ 20
Hugo: 20
Ingrid: 20
Isab@@ 20
Ivy 20
Jak@@ 20
Japan@@ 20
Jeremy 20
Jessie 20
Jon 20
Kai 20
Lara 20
Lena 20
Listen 20
Lydia 20
March@@ 20
Michael@@ 20
Morgan 20
Mus@@ 20
Nop@@ 20
OR@@ 20
Obviously 20
Ola 20
Ph@@ 20
Potter 20
REALLY 20
Rit@@ 20
Sarah@@ 20
Sup@@ 20
T-@@ 20
Though 20
Ukrain@@ 20
Ul@@ 20
Ursula 20
Violet 20
Vivian: 20
Wednesday, 20
Wel@@ 20
Won't 20
Zack 20
\nAva: 20
\nHannah: 20
\nKyle: 20
\nMeg: 20
\nRebecca: 20
\nRonald: 20
\nTamara: 20
\nTheresa: 20
\r\nBren@@ 20
\r\nCeleste: 20
\r\nCraig: 20
\r\nDarren: 20
\r\nEsther: 20
\r\nEzra: 20
\r\nFedora: 20
\r\nGrayson: 20
\r\nHelmut: 20
\r\nImogen: 20
\r\nJuliet: 20
\r\nKaja: 20
\r\nLaurie: 20
\r\nMacy: 20
\r\nMatilda: 20
\r\nNatasha: 20
\r\nPreston: 20
\r\nRicky: 20
\r\nRo@@ 20
\r\nSanaz: 20
\r\nSash: 20
\r\nSienna: 20
a.@@ 20
abi: 20
abor@@ 20
abriella: 20
abroad 20
abroad@@ 20
adie: 20
afterwards.", 20
ake, 20
am's 20
ame 20
andall: 20
ashamed 20
ates@@ 20
atherine 20
atia: 20
aura: 20
ause 20
below 20
bing@@ 20
block@@ 20
boring, 20
bowling 20
break. 20
breath@@ 20
cand@@ 20
canteen 20
capital 20
cat. 20
children. 20
cir@@ 20
coffee.", 20
companies 20
confus@@ 20
controll@@ 20
cosmetics 20
costume 20
cott 20
crime 20
cus: 20
custom@@ 20
damage 20
decide@@ 20
demand 20
describe 20
dessert 20
disaster@@ 20
dish 20
divorce 20
documentary 20
don't, 20
drama 20
drawing 20
dunno. 20
e?\r\nTom: 20
easier@@ 20
ective 20
edit@@ 20
eggy: 20
eigh: 20
elda: 20
embarrassing 20
eni@@ 20
erc@@ 20
erek: 20
everly: 20
everyday@@ 20
evil 20
expected@@ 20
experienced 20
explained 20
extra@@ 20
fabulous 20
fixing 20
floo@@ 20
forward@@ 20
free. 20
gang@@ 20
geni@@ 20
glad@@ 20
glo@@ 20
graphic 20
gro@@ 20
ground@@ 20
gy@@ 20
hang@@ 20
hehe 20
hiking 20
hilip: 20
hip 20
hockey 20
hona: 20
hop@@ 20
however 20
hurts 20
ic: 20
ico: 20
icole: 20
ids 20
iiii@@ 20
ike 20
imi: 20
impressi@@ 20
incl@@ 20
inconveni@@ 20
inn: 20
installed 20
invited@@ 20
iron@@ 20
ising 20
ist, 20
it?\r\nL@@ 20
it?\r\nR@@ 20
ita 20
iti@@ 20
ittany: 20
jump@@ 20
jumping 20
k's 20
l. 20
latest@@ 20
leen: 20
left. 20
ler 20
less, 20
less. 20
limited 20
lise: 20
lish@@ 20
lla: 20
love. 20
mainly 20
manual 20
marri@@ 20
material@@ 20
meds 20
message. 20
mid 20
mma: 20
money.", 20
moron@@ 20
movie.", 20
muff@@ 20
murder@@ 20
myself, 20
n's 20
natur@@ 20
need. 20
neg@@ 20
neither. 20
news! 20
ning 20
notebook 20
omek: 20
one: 20
opher: 20
ophi@@ 20
opinion. 20
opportunity@@ 20
oreen: 20
osa: 20
osie: 20
ough 20
painful 20
painkill@@ 20
peace 20
period@@ 20
permission 20
phones 20
plann@@ 20
please! 20
popular@@ 20
possibility 20
postponed 20
pray 20
printer@@ 20
profession@@ 20
pt@@ 20
pub, 20
pyjam@@ 20
question. 20
race: 20
rate 20
reasons 20
recognize 20
recover@@ 20
relaxed 20
replied 20
resign@@ 20
respond 20
rie 20
rolling 20
rs. 20
rush 20
s.\r\nJohn: 20
sauc@@ 20
series. 20
serious. 20
shopping, 20
shopping. 20
shouldn’t 20
show, 20
show. 20
sight@@ 20
sin@@ 20
skills 20
smile 20
soo@@ 20
spr@@ 20
spread@@ 20
ss, 20
station.", 20
storage 20
streets 20
supervis@@ 20
sushi@@ 20
sweet, 20
sweetie@@ 20
swim@@ 20
swing 20
switched 20
tap@@ 20
tenn@@ 20
tered 20
therapy 20
there?\r\nL@@ 20
this! 20
though? 20
to: 20
train, 20
travel@@ 20
traveling 20
trip, 20
type@@ 20
uber@@ 20
um. 20
uploaded 20
uriel: 20
ush 20
uuuu@@ 20
van@@ 20
very: 20
very@@ 20
want. 20
wears 20
week? 20
weird, 20
went@@ 20
whoever 20
wood 20
wrong, 20
°)@@ 20
✨@@ 20
👏@@ 20
🤔@@ 20
🤦@@ 20
!\r\nCar@@ 19
!\r\nHannah: 19
!\r\nJeff: 19
!\r\nJen: 19
!\r\nLiz: 19
!\r\nLucas: 19
!\r\nNatalie: 19
!\r\nPat: 19
!\r\nPhil: 19
!\r\nTed: 19
"Annie: 19
"Becky 19
"Carl: 19
"Charlotte 19
"Cindy: 19
"Donna 19
"Gary: 19
"Jackie: 19
"Jay 19
"Jess: 19
"Jon@@ 19
"Larry: 19
"Lia: 19
"Mandy: 19
"Megan 19
"Mel: 19
"Michelle: 19
"Oliver: 19
"Pam: 19
"Rob@@ 19
"Simon 19
"Taylor: 19
"Tommy: 19
"Victor: 19
**@@ 19
...\r\nJane: 19
...\r\nMartha: 19
.30@@ 19
.5 19
.\r\nBruce: 19
.\r\nCaroline: 19
.\r\nJean: 19
.\r\nKen: 19
.\r\nMarie: 19
.\r\nZ@@ 19
.\r\nZack: 19
1, 19
1/@@ 19
2018@@ 19
3pm 19
4:30@@ 19
6.", 19
:((@@ 19
:)\r\nMike: 19
:D\r\nAnna: 19
?\nHarry: 19
?\nJim: 19
?\nMaria: 19
?\nOlivia: 19
?\r\nBarry: 19
?\r\nDean: 19
?\r\nLea: 19
?\r\nMickey: 19
?\r\nNora: 19
?\r\nPamela: 19
?\r\nPhilip: 19
?\r\nPhoebe: 19
?\r\nRoger: 19
?\r\nSharon: 19
?\r\nVicky: 19
Alber@@ 19
Alright 19
Anna@@ 19
Aven@@ 19
Awesome 19
Basically 19
Bill's 19
Bro 19
Brooke 19
Brooke: 19
Brussel@@ 19
But@@ 19
Canad@@ 19
Cant 19
Cast@@ 19
Clair: 19
Clare: 19
Congratulations 19
Du@@ 19
Dunno 19
EC@@ 19
Ell@@ 19
Emma@@ 19
February 19
Fran: 19
France@@ 19
Friday? 19
Ge@@ 19
George, 19
Gl@@ 19
Greta 19
Hank 19
Hard 19
Heidi 19
Hiya 19
Howard 19
I, 19
I. 19
Idk@@ 19
Indi@@ 19
Indian 19
Jake, 19
Jen@@ 19
Jennif@@ 19
Josh, 19
Judith 19
June. 19
June@@ 19
Kati@@ 19
Kelly, 19
Latin 19
Leon 19
Les@@ 19
Lik@@ 19
Lola 19
ME@@ 19
Madrid 19
Maria@@ 19
Marry 19
Merc@@ 19
Mexic@@ 19
Mexico@@ 19
Mostly 19
Nicky 19
Nothing, 19
OT@@ 19
OU@@ 19
Olaf: 19
Olivi@@ 19
Omg, 19
Owen: 19
PLN 19
Pamela 19
Paulina 19
Plea@@ 19
Popp@@ 19
Ralph 19
Ren@@ 19
Russia 19
Sending 19
Shel@@ 19
Sl@@ 19
Sophi@@ 19
Sto@@ 19
Sy@@ 19
Sylvia 19
Thailand@@ 19
Thinking 19
Thomas@@ 19
Three 19
UN@@ 19
UP@@ 19
V 19
Welcome 19
Wilma: 19
Win@@ 19
Wouldn't 19
Wow. 19
Zara 19
\nBob: 19
\nElla: 19
\nHolly: 19
\nHoward: 19
\nJerry: 19
\nJulie: 19
\nKamil: 19
\nKaty: 19
\nRory: 19
\nRose: 19
\nSteve: 19
\nW@@ 19
\r\nAd@@ 19
\r\nAlexa: 19
\r\nAngelina: 19
\r\nBeau: 19
\r\nCecilia: 19
\r\nChristopher: 19
\r\nCourtney: 19
\r\nDaphne: 19
\r\nEla: 19
\r\nElisa: 19
\r\nElsie: 19
\r\nErnest: 19
\r\nGerard: 19
\r\nHailey: 19
\r\nHomer: 19
\r\nJarod: 19
\r\nJenny 19
\r\nJuly: 19
\r\nMarly: 19
\r\nMat: 19
\r\nNestor: 19
\r\nNoel: 19
\r\nPenelope: 19
\r\nRaquel: 19
\r\nVera: 19
\r\nVicki: 19
\r\nYann: 19
achael: 19
ade@@ 19
adia: 19
advic@@ 19
advis@@ 19
agda: 19
agency 19
ai: 19
aid 19
aja: 19
ald: 19
all-@@ 19
almost@@ 19
amar: 19
amazing. 19
ambul@@ 19
amille: 19
ancy: 19
anda 19
anie: 19
aqu@@ 19
argued 19
around. 19
ask, 19
asmine: 19
aster@@ 19
atiana: 19
atty: 19
ayla 19
barbecue 19
bars 19
behavi@@ 19
bil@@ 19
binge 19
bird@@ 19
birth@@ 19
books. 19
bored. 19
both, 19
bothered 19
bow@@ 19
boxes 19
breakfast. 19
bring@@ 19
cab@@ 19
cancer@@ 19
caused 19
cell 19
cer@@ 19
charged 19
chatting 19
cheapest 19
check, 19
choic@@ 19
choice, 19
coach 19
coast@@ 19
cold, 19
comment@@ 19
competition@@ 19
complet@@ 19
confirm@@ 19
confirmation 19
consul@@ 19
contacts 19
couch@@ 19
cough@@ 19
could, 19
courses 19
craz@@ 19
ddie: 19
degrees@@ 19
deser@@ 19
deserved 19
dick 19
div@@ 19
doc 19
does. 19
dom 19
downstair@@ 19
dram@@ 19
dreams 19
drink, 19
driving@@ 19
drunk. 19
dumped 19
earlier, 19
eating@@ 19
edit 19
eel 19
egan: 19
either, 19
elia 19
elicity: 19
elyn: 19
emma: 19
end. 19
english 19
ental 19
entrance@@ 19
ever\n@@ 19
everyone. 19
expert 19
fairly 19
family, 19
fans 19
favor 19
fee 19
fever@@ 19
financial 19
flies 19
flow 19
fon@@ 19
foo@@ 19
for? 19
forgot, 19
foundation 19
funny! 19
fy 19
ga 19
girls. 19
gladly 19
glasses@@ 19
gn@@ 19
googled 19
grades 19
green@@ 19
gs@@ 19
guid@@ 19
hangover 19
her! 19
hesitate 19
hik@@ 19
hil@@ 19
hoebe: 19
honda: 19
honestly, 19
hopeless@@ 19
hotel, 19
hotels 19
iP@@ 19
icked 19
ideas?\r\n@@ 19
iff@@ 19
ight 19
iki: 19
ilvia: 19
immy: 19
imon: 19
impressive@@ 19
in'@@ 19
ina. 19
indsey: 19
inston: 19
interested, 19
inv@@ 19
iotr: 19
ious 19
irrit@@ 19
ish. 19
it.. 19
item@@ 19
journal@@ 19
kid. 19
km@@ 19
knee 19
knee@@ 19
language@@ 19
lasag@@ 19
laz@@ 19
le.", 19
legs 19
lin: 19
listen, 19
logist@@ 19
love! 19
loyd: 19
luv 19
mal@@ 19
male 19
man's 19
management 19
marry 19
milli@@ 19
mine. 19
miss@@ 19
mission 19
mist@@ 19
mistakes 19
mobile@@ 19
months.", 19
nail 19
name?\r\n@@ 19
neighbourhood 19
ner 19
news, 19
non-@@ 19
obsessed 19
offering 19
office?\r\n@@ 19
olo@@ 19
onas: 19
onika: 19
onst@@ 19
ony@@ 19
ood@@ 19
oooooooo@@ 19
optim@@ 19
or: 19
organised 19
oring 19
orman: 19
ouis: 19
ouise: 19
p.m.", 19
pati@@ 19
patience 19
phon@@ 19
photograp@@ 19
pian@@ 19
plane@@ 19
planned@@ 19
please? 19
power@@ 19
price. 19
priv@@ 19
progress 19
purchase 19
puzz@@ 19
reasonable@@ 19
regards 19
remain@@ 19
renda 19
require 19
reserved 19
resid@@ 19
resul@@ 19
revor: 19
ri 19
right... 19
runs 19
sales 19
sauce 19
says@@ 19
scare 19
sco@@ 19
scre@@ 19
sec, 19
seen@@ 19
self 19
seminar@@ 19
sephine: 19
sequ@@ 19
session@@ 19
shirts 19
side, 19
skype 19
sleepy 19
spec@@ 19
speech@@ 19
speed 19
spoil 19
spread 19
spring 19
st, 19
stock 19
stolen 19
ston: 19
struc@@ 19
stupid, 19
sue 19
supervisor 19
suppor@@ 19
surprising 19
taken@@ 19
tas@@ 19
tastes 19
terribly 19
tha 19
that... 19
though! 19
thousand 19
threw 19
thursday@@ 19
thy 19
ticket. 19
tive@@ 19
to.", 19
toilet@@ 19
tomatoes 19
track@@ 19
trail@@ 19
transl@@ 19
trash@@ 19
travell@@ 19
truth@@ 19
twice@@ 19
tx@@ 19
udd@@ 19
ugene: 19
uis: 19
ukas: 19
upstairs 19
usie: 19
vers@@ 19
vi: 19
volunte@@ 19
wel@@ 19
well! 19
wen: 19
whatever, 19
wire 19
wit@@ 19
with. 19
workshop@@ 19
ynn: 19
yourself. 19
yummy@@ 19
za: 19
é: 19
（@@ 19
🎉@@ 19
🏼@@ 19
😁😁@@ 19
😆@@ 19
😍 19
😓@@ 19
😞@@ 19
😟@@ 19
!!!!! 18
!)@@ 18
!? 18
!\nG@@ 18
!\r\nBrian: 18
!\r\nI@@ 18
!\r\nIan: 18
!\r\nJamie: 18
!\r\nJill: 18
!\r\nKim: 18
!\r\nLewis: 18
!\r\nMichael: 18
!\r\nMom: 18
!\r\nSheila: 18
!\r\nSimon: 18
!\r\nTaylor: 18
!\r\nZ@@ 18
"Ashley 18
"Dorothy: 18
"Franc@@ 18
"Justin: 18
"Meg 18
"Megan: 18
"Molly: 18
"Mona: 18
"On 18
"Ruth: 18
"Ryan 18
"Samuel: 18
"Toby: 18
"Vicky: 18
'The 18
(^@@ 18
(and 18
)\n@@ 18
*.*@@ 18
...\r\nEmma: 18
...\r\nMia: 18
...\r\nPeter: 18
.\r\nBecky: 18
.\r\nCar@@ 18
.\r\nCora: 18
.\r\nDebbie: 18
.\r\nDoug: 18
.\r\nEllen: 18
.\r\nGloria: 18
.\r\nHank: 18
.\r\nI@@ 18
.\r\nLayla: 18
.\r\nMona: 18
.\r\nOwen: 18
.\r\nPhilip: 18
.\r\nScott: 18
12-@@ 18
26 18
4.@@ 18
5pm@@ 18
:O 18
:]@@ 18
=@@ 18
?\nBen: 18
?\nHenry: 18
?\nJulia: 18
?\nLucy: 18
?\nMichael: 18
?\nZ@@ 18
?\r\nBlake: 18
?\r\nBrittany: 18
?\r\nChristine: 18
?\r\nEd@@ 18
?\r\nElisabeth: 18
?\r\nHugh: 18
?\r\nJody: 18
?\r\nKeith: 18
?\r\nKlaudia: 18
?\r\nLara: 18
?\r\nLenny: 18
?\r\nLola: 18
?\r\nPatty: 18
?\r\nRonnie: 18
?\r\nSandy: 18
?\r\nSteven: 18
AA@@ 18
Adam, 18
Adrian: 18
Africa 18
Air 18
Ale@@ 18
Alec 18
Alexandra 18
All@@ 18
Amazon 18
Andrew@@ 18
Ann's 18
Annab@@ 18
Arthur 18
Avengers 18
Aw@@ 18
BS@@ 18
Ba@@ 18
Batman 18
Beth@@ 18
Bir@@ 18
Blake: 18
Brooklyn 18
But, 18
CV@@ 18
Caleb 18
Chandler 18
Chicago 18
Christina 18
Christopher: 18
Cro@@ 18
Cuba@@ 18
Cur@@ 18
DD@@ 18
Deal@@ 18
Dud@@ 18
Duh@@ 18
EU@@ 18
Elli@@ 18
England 18
Fire 18
French@@ 18
George@@ 18
Georgia: 18
Georgina: 18
Gosh, 18
Gregory 18
Harriet: 18
Harvey: 18
Hell@@ 18
Holy 18
Howard: 18
Hugh: 18
IM@@ 18
Isabelle 18
Italy. 18
Japanese 18
John. 18
Jud@@ 18
Judy 18
July@@ 18
Katy 18
Lake 18
Lat@@ 18
Lewis 18
Lindsay 18
Madison 18
Marth@@ 18
Marvel 18
McDonald@@ 18
Melani@@ 18
Mess@@ 18
Mis@@ 18
Nat@@ 18
Nora 18
Norm@@ 18
North 18
November@@ 18
ON 18
Ob@@ 18
Oliver@@ 18
Out@@ 18
PLEASE@@ 18
Pan@@ 18
Peter. 18
Pho@@ 18
Pier@@ 18
Professor 18
RE@@ 18
Rose@@ 18
Rs. 18
SH@@ 18
Saw 18
Sharon: 18
So... 18
Speaking 18
Squ@@ 18
Suzie 18
Sw@@ 18
Tinder 18
Troy 18
Tyl@@ 18
Uber 18
VI@@ 18
Vic@@ 18
Vince 18
Vince: 18
Willi@@ 18
Work 18
XDDD@@ 18
Y? 18
Yay@@ 18
YouTube 18
\\@@ 18
\nArthur: 18
\nCamille: 18
\nChloe: 18
\nClaire: 18
\nDamian: 18
\nDana: 18
\nGer@@ 18
\nHilda: 18
\nJoanna: 18
\nJoshua: 18
\nKasia: 18
\nNatalia: 18
\nPete: 18
\nPolly: 18
\nTommy: 18
\r\nAJ: 18
\r\nAlvin: 18
\r\nAnny: 18
\r\nAubrey: 18
\r\nBianca: 18
\r\nCaro: 18
\r\nElijah: 18
\r\nElliot: 18
\r\nHelena: 18
\r\nIssac: 18
\r\nJodie: 18
\r\nJulianna: 18
\r\nKaleigh: 18
\r\nLane: 18
\r\nLeslie: 18
\r\nMonika: 18
\r\nNed: 18
\r\nNorman: 18
\r\nParker: 18
\r\nPeyton: 18
\r\nRamona: 18
\r\nRodney: 18
\r\nSummer: 18
\r\nTessa: 18
\r\nVivian: 18
\r\nWesley: 18
a-@@ 18
ackson: 18
acqueline: 18
ad: 18
adults 18
advanc@@ 18
advance 18
ady: 18
afterwards. 18
aging 18
agreed@@ 18
agrees. 18
aha@@ 18
aia: 18
aim@@ 18
ala: 18
album@@ 18
ald@@ 18
an! 18
animal@@ 18
ank: 18
ans: 18
ants 18
anya: 18
ao 18
apping 18
applic@@ 18
arcey: 18
arrell: 18
ars: 18
asked@@ 18
asmine 18
asp@@ 18
assie: 18
atasha: 18
ather@@ 18
athy 18
avail@@ 18
awrence: 18
aww 18
ayl@@ 18
baby, 18
back! 18
bar. 18
barbec@@ 18
beginning@@ 18
behaving 18
behaviour 18
behind@@ 18
bell@@ 18
ben@@ 18
ber, 18
bf@@ 18
bigail: 18
blah 18
boil@@ 18
boots 18
boy. 18
bra: 18
brother, 18
bs@@ 18
bt 18
bull@@ 18
business. 18
cab 18
cake. 18
calendar@@ 18
call. 18
chap@@ 18
check. 18
cheers@@ 18
cleaner@@ 18
clou@@ 18
clu@@ 18
club. 18
coat@@ 18
colle@@ 18
colleagu@@ 18
colleague 18
comedy 18
company, 18
compared 18
complic@@ 18
conference. 18
consult 18
content@@ 18
country. 18
couple@@ 18
culture@@ 18
cus@@ 18
demand@@ 18
depres@@ 18
didn't. 18
difference@@ 18
dig@@ 18
discussed 18
disgusting@@ 18
dislikes 18
doctor, 18
done?\r\n@@ 18
door. 18
driver@@ 18
dunno, 18
e.\r\nA@@ 18
ea 18
eats 18
eb 18
ebby: 18
educ@@ 18
ee, 18
eep@@ 18
egina: 18
election@@ 18
eleine: 18
elissa 18
else, 18
elvin: 18
emotional 18
ennie: 18
epp@@ 18
exactly. 18
example, 18
exit 18
f: 18
fantas@@ 18
fast, 18
femin@@ 18
ferry 18
file@@ 18
flower 18
food.", 18
foot 18
foreign 18
forest 18
freak 18
friend.", 18
ged 18
gela: 18
girls! 18
had: 18
haircut 18
happened. 18
happy, 18
heeee@@ 18
hil: 18
hm, 18
horror@@ 18
hour\n@@ 18
hugs 18
ian. 18
ianca: 18
iane: 18
ical@@ 18
idk, 18
ilena: 18
illy 18
imberly: 18
inga: 18
injured 18
inny 18
ins. 18
insist@@ 18
inted 18
iss@@ 18
ist. 18
it?\r\nK@@ 18
ixie: 18
izzie: 18
jazz 18
jeans 18
joke@@ 18
karaoke 18
ki@@ 18
knew@@ 18
ks: 18
lag@@ 18
lan: 18
later\n@@ 18
lay 18
lemme 18
ler@@ 18
lie@@ 18
lied 18
like... 18
limit 18
line@@ 18
lish 18
lison 18
literature@@ 18
logist 18
longer. 18
lovely! 18
lover@@ 18
mac@@ 18
make@@ 18
measure 18
meet, 18
memories 18
middle@@ 18
missing@@ 18
monday 18
monthly 18
mountains@@ 18
mouth 18
movie, 18
multiple 18
music. 18
name, 18
ned, 18
net 18
new, 18
nick@@ 18
nie 18
nor@@ 18
notes. 18
o.O@@ 18
obj@@ 18
oblig@@ 18
old. 18
ology 18
ophie: 18
opinions 18
orge: 18
ouie: 18
ound. 18
overnight 18
package@@ 18
pad@@ 18
paint@@ 18
painted 18
panel 18
parad@@ 18
participate 18
parties@@ 18
partn@@ 18
pink@@ 18
pizza. 18
polish 18
pon@@ 18
potato@@ 18
pregnant. 18
prices@@ 18
pro 18
problems, 18
pt 18
pub. 18
pumpkin 18
pushed 18
qui@@ 18
quiz 18
racy: 18
ray@@ 18
ready. 18
recently, 18
recording 18
refuse 18
regular@@ 18
rented 18
reply@@ 18
reserv@@ 18
ress@@ 18
rick 18
riel: 18
riot@@ 18
rise 18
route 18
rrr@@ 18
ru 18
rule 18
runn@@ 18
rwin: 18
s?@@ 18
safe, 18
sake@@ 18
sandwich@@ 18
sat@@ 18
science 18
scient@@ 18
score 18
se: 18
section 18
semester 18
set. 18
settling 18
shit! 18
shot@@ 18
shuttle 18
shy@@ 18
sick.", 18
silver 18
sion. 18
six@@ 18
skirt 18
slee@@ 18
socks 18
sourc@@ 18
spark@@ 18
spir@@ 18
sry@@ 18
ss. 18
stock@@ 18
store, 18
stret@@ 18
surprisingly 18
suspect 18
sweet! 18
talk, 18
tat@@ 18
tax 18
taxi@@ 18
temperature@@ 18
tex@@ 18
th: 18
that?@@ 18
thew 18
thi@@ 18
thrill@@ 18
thursday 18
tiring 18
today! 18
tom 18
translat@@ 18
travels 18
treatment 18
trip.", 18
trips 18
twins 18
ula 18
ummy: 18
unbear@@ 18
unny: 18
upcoming 18
ups 18
us! 18
vers 18
vie: 18
visits 18
w! 18
wan: 18
warmer 18
weak 18
week! 18
week's 18
weird. 18
what?@@ 18
why, 18
wid@@ 18
woken 18
women@@ 18
work! 18
xx 18
xx\r\nSue: 18
y'all 18
year? 18
yler: 18
you!! 18
you.\r\nB@@ 18
you?\r\nM@@ 18
▽@@ 18
／@@ 18
!\r\nBill: 17
!\r\nBrenda: 17
!\r\nChloe: 17
!\r\nJackie: 17
!\r\nMaggie: 17
!\r\nMeg: 17
!\r\nNicole: 17
!\r\nPaula: 17
!\r\nVictor: 17
!\r\nW@@ 17
!\r\nWill: 17
"Arthur: 17
"Bo@@ 17
"Bobby: 17
"Danny: 17
"Dean: 17
"Derek: 17
"Edward: 17
"Ellen: 17
"Ellie: 17
"Ethan 17
"Freddie: 17
"Janet: 17
"Jordan: 17
"Larry 17
"Lauren: 17
"Leah 17
"Lil@@ 17
"Liz: 17
"Marie 17
"Marie: 17
"Melissa: 17
"Mr. 17
"No@@ 17
"Owen: 17
"Ralph: 17
"Richard 17
"Sylvia: 17
"Veronica: 17
"Victor 17
"Walter: 17
-.-@@ 17
-to-@@ 17
...\r\nAl@@ 17
...\r\nAlice: 17
...\r\nDorothy: 17
...\r\nLucy: 17
.\nMar@@ 17
.\nMr. 17
.\r\nAd@@ 17
.\r\nAmber: 17
.\r\nAva: 17
.\r\nBobby: 17
.\r\nBojana: 17
.\r\nCaleb: 17
.\r\nEve: 17
.\r\nHugh: 17
.\r\nLiam: 17
.\r\nMick: 17
.\r\nNate: 17
.\r\nNicole: 17
.\r\nTommy: 17
12th 17
18th 17
2n@@ 17
30th 17
4pm@@ 17
50-@@ 17
6.30 17
8.30@@ 17
8:30@@ 17
9, 17
:))))@@ 17
:)\r\nMark: 17
:0@@ 17
:D\r\nJulia: 17
:c@@ 17
<file_photo>\r\nS@@ 17
= 17
?!!@@ 17
?!?!?@@ 17
?\nAl@@ 17
?\nDaniel: 17
?\nSusan: 17
?\r\nAbby: 17
?\r\nAndrea: 17
?\r\nArthur: 17
?\r\nAudrey: 17
?\r\nJayden: 17
?\r\nLauren: 17
?\r\nLouis: 17
?\r\nLynn: 17
?\r\nMarcus: 17
?\r\nMason: 17
?\r\nNaomi: 17
?\r\nSasha: 17
?\r\nStan: 17
?\r\nStella: 17
?\r\nVic: 17
A-@@ 17
A. 17
Al 17
Alex. 17
Apple 17
Asia 17
At@@ 17
Basically, 17
Beck@@ 17
Bell@@ 17
Blu@@ 17
Brandon 17
Bye! 17
Cambridge 17
Channel 17
Chic@@ 17
Chlo@@ 17
Clark 17
Cooper 17
Cost@@ 17
DO@@ 17
Den@@ 17
Diane 17
Doroth@@ 17
Dun@@ 17
Dunno, 17
East@@ 17
Edward@@ 17
Elena 17
Except 17
Fall@@ 17
Fil@@ 17
Fran 17
Franklin 17
Fred@@ 17
Funny 17
GH@@ 17
Greg, 17
Gregory: 17
Guys 17
Gw@@ 17
Ha, 17
Helen, 17
High@@ 17
Hiya, 17
Hm@@ 17
Honey 17
Hungar@@ 17
Ikea 17
India 17
Ireland@@ 17
Japan 17
Julia@@ 17
Just@@ 17
Kelly: 17
Lady 17
Laur@@ 17
Lennon 17
Lenny 17
Lia 17
Lisbon 17
London, 17
Louis@@ 17
Manches@@ 17
Marco 17
Mike.", 17
Mun@@ 17
Never@@ 17
Nik@@ 17
Now@@ 17
OD@@ 17
OL@@ 17
Okey@@ 17
Os@@ 17
Ou@@ 17
PS 17
Pad@@ 17
Paul, 17
Paulina: 17
Pear@@ 17
PhD 17
Pls 17
Poz@@ 17
RS@@ 17
Riley 17
Russi@@ 17
SP@@ 17
Samuel 17
Sara's 17
Sil@@ 17
Sir, 17
Smith. 17
Smith@@ 17
So? 17
Splend@@ 17
Stacy 17
Start 17
Station 17
Steven: 17
Steven@@ 17
THANK 17
Tara 17
Ted@@ 17
Tha@@ 17
Told 17
Total@@ 17
Tues@@ 17
Tuesday.", 17
Ugh, 17
University 17
Walmar@@ 17
Warsaw. 17
Washington 17
Wasn't 17
Wed@@ 17
Wednesday.", 17
Wendy's 17
World 17
Yvonne: 17
\nAgata: 17
\nEric: 17
\nEthan: 17
\nJackie: 17
\nJason: 17
\nMarianne: 17
\nMay: 17
\nMelanie: 17
\nNick: 17
\nPamela: 17
\nPatty: 17
\nPedro: 17
\nRichard: 17
\nScott: 17
\r\nAhmed: 17
\r\nAisha: 17
\r\nAlfie: 17
\r\nCasey: 17
\r\nCora: 17
\r\nDamien: 17
\r\nDanie: 17
\r\nDaria: 17
\r\nDebra: 17
\r\nEleanor: 17
\r\nElliott: 17
\r\nEsme: 17
\r\nGabi: 17
\r\nGabriella: 17
\r\nHaley: 17
\r\nHilary: 17
\r\nIngrid: 17
\r\nJacqui: 17
\r\nJayson: 17
\r\nKale: 17
\r\nKerry: 17
\r\nLayla: 17
\r\nLottie: 17
\r\nLukass: 17
\r\nMarciano: 17
\r\nMarvin: 17
\r\nMichaela: 17
\r\nMilena: 17
\r\nMiriam: 17
\r\nMr. 17
\r\nNathaniel: 17
\r\nPaul 17
\r\nReese: 17
\r\nRicardo: 17
\r\nRoberta: 17
\r\nRod: 17
\r\nSavannah: 17
\r\nTamara: 17
\r\nTanner: 17
\r\nTeddy: 17
abrina: 17
accommodation@@ 17
accompany 17
ache@@ 17
adm@@ 17
advert@@ 17
ae: 17
affect 17
ages. 17
agrees.", 17
aine 17
aisy 17
ait@@ 17
alia 17
all: 17
already? 17
alright. 17
aniel: 17
ann 17
announc@@ 17
ano 17
approve 17
architecture 17
aren@@ 17
arrett: 17
arrival 17
art: 17
artist@@ 17
ass, 17
ater@@ 17
attractive 17
auntie 17
aureen: 17
avin: 17
away.", 17
babysit 17
bad! 17
bedroom 17
ber\n@@ 17
bless@@ 17
body, 17
borrow@@ 17
bra 17
bread, 17
brother's 17
browsing 17
bub@@ 17
burg 17
bus, 17
butter, 17
c'mon@@ 17
cake.", 17
calling@@ 17
campaign@@ 17
career 17
case. 17
casual 17
cat, 17
challeng@@ 17
cheat 17
chest 17
choice. 17
choices 17
classic 17
coast 17
cod@@ 17
coffee, 17
coke 17
college@@ 17
colours 17
comfort@@ 17
conference@@ 17
confirms 17
congrat@@ 17
connec@@ 17
constantly 17
corn@@ 17
could've 17
couldn’t 17
count@@ 17
cow@@ 17
crash 17
cross@@ 17
cute! 17
darling. 17
data@@ 17
depending 17
destin@@ 17
details, 17
die@@ 17
different, 17
dig 17
dir@@ 17
dishes@@ 17
distrac@@ 17
dog, 17
doubt@@ 17
downtown@@ 17
dropping 17
earlier. 17
easy. 17
ecil: 17
econom@@ 17
ected@@ 17
eggs@@ 17
eghan: 17
eira: 17
ek@@ 17
electric@@ 17
electricity 17
emma 17
employ@@ 17
ened 17
engine 17
ening 17
enis: 17
enjo@@ 17
ep 17
ercy: 17
ernard: 17
ery@@ 17
estiny: 17
ew 17
ex-@@ 17
experiment@@ 17
ey's 17
favourit@@ 17
fear 17
fear@@ 17
feeding 17
feelings 17
finger 17
fish. 17
follow@@ 17
for, 17
for. 17
forgotten@@ 17
fort@@ 17
gar: 17
garage@@ 17
gear@@ 17
geez@@ 17
goin 17
golden 17
gram@@ 17
growing 17
guy. 17
gym. 17
hamm@@ 17
happened, 17
happened?\r\n@@ 17
harm 17
headache 17
herry: 17
heryl: 17
hundred 17
ian's 17
ices@@ 17
ied 17
ier 17
iguel: 17
iii@@ 17
ilary: 17
ild@@ 17
ily, 17
ima 17
imp@@ 17
impressed@@ 17
ino@@ 17
inspir@@ 17
install 17
install@@ 17
instructor 17
intoler@@ 17
isnt 17
istic@@ 17
it.\r\nK@@ 17
ital@@ 17
itive 17
ja: 17
join. 17
juice@@ 17
jumped 17
junk 17
ker@@ 17
kers 17
kettle 17
landscap@@ 17
late.\r\n@@ 17
lately, 17
leave. 17
lemon 17
lev@@ 17
ley, 17
ley@@ 17
lifesty@@ 17
like? 17
lisabeth 17
llie: 17
loise: 17
looking@@ 17
lower 17
luck! 17
mann@@ 17
matches 17
mates@@ 17
medication 17
meets 17
metro 17
mith: 17
monum@@ 17
mos@@ 17
move@@ 17
mul@@ 17
nan 17
necessary@@ 17
negative 17
neither, 17
new. 17
news?\r\n@@ 17
nex@@ 17
nights@@ 17
no... 17
normal, 17
north 17
novel 17
now... 17
ny 17
o! 17
obby: 17
ogan 17
oh! 17
onard: 17
ony 17
ordinary 17
organic 17
orma: 17
orothy 17
ors. 17
otherwis@@ 17
pages@@ 17
painkillers 17
panic 17
parti@@ 17
pass. 17
patient 17
perform 17
peri@@ 17
personally 17
phone.", 17
pills@@ 17
plan. 17
plans, 17
ple@@ 17
pool. 17
pop@@ 17
practic@@ 17
practical 17
precis@@ 17
prof. 17
professional@@ 17
profile@@ 17
prom@@ 17
properly@@ 17
purpose 17
pushing 17
quar@@ 17
queue 17
quot@@ 17
rand@@ 17
random@@ 17
rav@@ 17
ready, 17
reception@@ 17
reck@@ 17
reg@@ 17
religi@@ 17
remember. 17
renew@@ 17
resu@@ 17
result@@ 17
returning 17
ride@@ 17
ries 17
rly 17
roommate 17
rs 17
rub@@ 17
ruined 17
safety 17
say? 17
scarf@@ 17
scen@@ 17
sch@@ 17
searching 17
season. 17
sed, 17
sells 17
seminar 17
service@@ 17
shley: 17
should've 17
shown 17
silent 17
sion 17
sions 17
skating 17
skill@@ 17
sorry... 17
space. 17
spaghetti 17
speaker 17
spirit@@ 17
sponsor@@ 17
station, 17
study. 17
supports 17
tack@@ 17
taught 17
terrible. 17
thern 17
thin 17
thought, 17
thrilled 17
tip@@ 17
tm@@ 17
too? 17
tow@@ 17
trying@@ 17
ttyl@@ 17
urore: 17
uss@@ 17
usz: 17
uth 17
vegetarian 17
vodk@@ 17
volunteer 17
voucher 17
w: 17
wanted@@ 17
washed 17
where? 17
works. 17
wouldnt 17
xox@@ 17
yelled 17
yog@@ 17
you!\n@@ 17
you?\r\nS@@ 17
’t 17
￣@@ 17
😀 17
!!!\r\nR@@ 16
!!\r\nN@@ 16
!\r\nAnne: 16
!\r\nDean: 16
!\r\nMargaret: 16
!\r\nPatricia: 16
!\r\nWilliam: 16
!\r\nZoe: 16
"? 16
"Amber 16
"Andrea: 16
"Annie 16
"Barry 16
"Becky: 16
"Dylan 16
"Ethan: 16
"Gloria: 16
"Hugh: 16
"Isabella: 16
"Jess 16
"Leah: 16
"Logan: 16
"Lola: 16
"Louise: 16
"Max@@ 16
"Nora: 16
"Pauline: 16
"Shan@@ 16
"Shar@@ 16
"Ted: 16
"Ton@@ 16
(・@@ 16
-)@@ 16
...\nD@@ 16
...\r\nAnna: 16
...\r\nJohn: 16
...\r\nJulia: 16
...\r\nMary: 16
...\r\nMike: 16
...\r\nSue: 16
.\nA@@ 16
.\r\nBr@@ 16
.\r\nDana: 16
.\r\nDoris: 16
.\r\nHeidi: 16
.\r\nIsabel: 16
.\r\nMaya: 16
.\r\nMs. 16
.\r\nNelly: 16
.\r\nNora: 16
.\r\nRandy: 16
.\r\nScarlett: 16
.\r\nSidney: 16
.\r\nSmith: 16
.\r\nSophia: 16
.\r\nTaylor: 16
.\r\nViki: 16
11-@@ 16
12. 16
22 16
2pm 16
3-4 16
600 16
:D\r\nK@@ 16
;)\r\nAnna: 16
?\nJosh: 16
?\nLeo: 16
?\nMeg: 16
?\nPaul: 16
?\r\nAngie: 16
?\r\nBenjamin: 16
?\r\nClara: 16
?\r\nCynthia: 16
?\r\nDanielle: 16
?\r\nEdward: 16
?\r\nEmilia: 16
?\r\nEvan: 16
?\r\nGail: 16
?\r\nGreta: 16
?\r\nHoward: 16
?\r\nJacky: 16
?\r\nLayla: 16
?\r\nMadison: 16
?\r\nMindy: 16
?\r\nRiley: 16
?\r\nRosa: 16
?\r\nRoss: 16
?\r\nSergio: 16
?\r\nSuzie: 16
Ahh 16
Aid@@ 16
Airbn@@ 16
Alb@@ 16
Alison 16
Amsterdam 16
Andy, 16
Anita 16
Arab@@ 16
August. 16
Austri@@ 16
Being 16
Brazilian 16
Brexit. 16
Bridget 16
Brittany 16
C'mon@@ 16
CU 16
Califor@@ 16
Carolyn: 16
Chelsea 16
Chines@@ 16
Cinema 16
Cr@@ 16
DON'T 16
Daniel, 16
Darling, 16
Dennis 16
Dinner 16
Dyl@@ 16
ED@@ 16
Europe. 16
Eve@@ 16
FA@@ 16
Fore@@ 16
Frankie 16
Franklin: 16
GP 16
Gabriel 16
Geez@@ 16
Gemma 16
Gloria 16
Hall 16
Hehe@@ 16
Helen@@ 16
Hmmm 16
Hold 16
I'@@ 16
ID 16
IN 16
Internet@@ 16
Janet 16
Jessic@@ 16
Jody 16
Jude 16
July. 16
Karl 16
Kasia 16
Kate@@ 16
Kath@@ 16
Kathy 16
Keir@@ 16
Ken@@ 16
Kimberly 16
Kinda 16
Kore@@ 16
Ky@@ 16
LL@@ 16
La@@ 16
Linda@@ 16
Lis@@ 16
Lucy@@ 16
Maddie 16
Mand@@ 16
Mark. 16
May. 16
Maybe. 16
Mc@@ 16
Micha@@ 16
Mike: 16
Miles 16
Mmm@@ 16
Monika 16
Ne@@ 16
Neil 16
Nel@@ 16
Netflix. 16
Nic@@ 16
Nice, 16
None 16
PM, 16
Pac@@ 16
Paris, 16
Park@@ 16
Pat, 16
Possi@@ 16
Prag@@ 16
Queen@@ 16
Rachel@@ 16
Rand@@ 16
Really?@@ 16
Right? 16
Road 16
Ruth@@ 16
Saturday? 16
Scarlett 16
Sch@@ 16
Scott 16
Seriously 16
Seriously, 16
Sho@@ 16
Sophie: 16
Stella: 16
Stephen: 16
Steve, 16
Sweet 16
THAT@@ 16
TO 16
Tim, 16
Turkey 16
Uh@@ 16
Val@@ 16
Veronic@@ 16
Wa@@ 16
Wait@@ 16
West 16
We’ll 16
Whenever 16
Wi@@ 16
Wilson 16
X-@@ 16
Ya 16
York. 16
Zack: 16
Zoey: 16
\nAlicia: 16
\nBarbara: 16
\nDorothy: 16
\nGabe: 16
\nGary: 16
\nHarold: 16
\nKenneth: 16
\nKevin: 16
\nLeah: 16
\nMandy: 16
\nMargaret: 16
\nMatilda: 16
\nNathan: 16
\nSandy: 16
\nY@@ 16
\r\nA: 16
\r\nAggie: 16
\r\nAli@@ 16
\r\nAnn@@ 16
\r\nArabella: 16
\r\nBartek: 16
\r\nBeatrix: 16
\r\nBonnie: 16
\r\nCamille: 16
\r\nChase: 16
\r\nCinthia: 16
\r\nClarice: 16
\r\nConnie: 16
\r\nDale: 16
\r\nDamon: 16
\r\nDianne: 16
\r\nElsa: 16
\r\nEm@@ 16
\r\nEmmanuel: 16
\r\nFrancesca: 16
\r\nGarrett: 16
\r\nJacqueline: 16
\r\nJo@@ 16
\r\nJody: 16
\r\nJolene: 16
\r\nKathleen: 16
\r\nKlaudia: 16
\r\nKristle: 16
\r\nLillian: 16
\r\nLucia: 16
\r\nMarianne: 16
\r\nMarisol: 16
\r\nMarsha: 16
\r\nMat@@ 16
\r\nMattie: 16
\r\nMitch: 16
\r\nNicola: 16
\r\nOdin: 16
\r\nOleg: 16
\r\nPhillip: 16
\r\nRaven: 16
\r\nRichmond: 16
\r\nShannon: 16
\r\nStef: 16
\r\nSteph: 16
\r\nSuzy: 16
\r\nSven: 16
\r\nTess: 16
\r\nTilda: 16
\r\nZachary: 16
\r\nZuri: 16
accept@@ 16
actor 16
ad, 16
adv@@ 16
agner: 16
akes 16
alle@@ 16
aller@@ 16
amar@@ 16
ammie: 16
analy@@ 16
ang: 16
angry. 16
anice: 16
ank 16
anna, 16
annoys 16
another@@ 16
ante: 16
antibiot@@ 16
anyways, 16
anyways@@ 16
ape@@ 16
aphael: 16
appeared 16
ards 16
arek: 16
arian 16
arm 16
arrives 16
assist@@ 16
asy 16
ata: 16
atic@@ 16
aurel: 16
auto@@ 16
ayle@@ 16
aylor: 16
background 16
backpack@@ 16
balance 16
ban 16
bargain@@ 16
beautiful. 16
bed.", 16
beginning, 16
behav@@ 16
bell 16
ber. 16
better\n@@ 16
blog@@ 16
blon@@ 16
bly 16
body's 16
booking@@ 16
boyfriend, 16
brea@@ 16
brunch 16
brush 16
bugg@@ 16
built 16
cake, 16
calcul@@ 16
calls. 16
cancel@@ 16
capital@@ 16
catch@@ 16
ce, 16
centre. 16
certain@@ 16
chair 16
chances 16
change, 16
changes@@ 16
chapter@@ 16
charger@@ 16
checks 16
cheese@@ 16
chi@@ 16
child. 16
chocolat@@ 16
chore@@ 16
classes, 16
closed@@ 16
collap@@ 16
collec@@ 16
commercial 16
congratul@@ 16
congratulates 16
copy@@ 16
cow 16
craf@@ 16
cream, 16
crew 16
cry 16
crying@@ 16
customers 16
da@@ 16
day? 16
defin@@ 16
definit@@ 16
depressed 16
descrip@@ 16
dian 16
disappointed@@ 16
do.", 16
doctor. 16
dollars@@ 16
dom@@ 16
dow@@ 16
downloaded 16
drag 16
dress. 16
drive. 16
dude. 16
dward: 16
e.\r\nG@@ 16
e.\r\nJohn: 16
e?\r\nMike: 16
eager 16
eat, 16
ebra: 16
economy 16
ected 16
ection@@ 16
edi@@ 16
editing 16
effects 16
effici@@ 16
ek 16
ele: 16
elie: 16
ely! 16
emo@@ 16
entered 16
entry 16
episode@@ 16
ere@@ 16
ering 16
etic 16
eventually@@ 16
expects 16
explore 16
fabric 16
facts 16
fantastic! 16
fascinating 16
fic 16
fied@@ 16
fig@@ 16
flat, 16
folks 16
fridge. 16
fruits 16
fter 16
fuel 16
general@@ 16
genius@@ 16
ger: 16
ghost@@ 16
grand 16
group, 16
gs 16
guard@@ 16
gur@@ 16
guys? 16
ha! 16
ha: 16
habit@@ 16
happy! 16
healthy@@ 16
hell, 16
he’ll 16
hole 16
horrible. 16
housewarming 16
hug 16
hundreds 16
hunting 16
ichie: 16
icolas: 16
idge: 16
ierre: 16
ill's 16
illary: 16
imberley: 16
immediately@@ 16
impression@@ 16
indust@@ 16
ing... 16
ingredients 16
inside. 16
instagram 16
intend 16
invo@@ 16
iri@@ 16
is? 16
it!\r\nB@@ 16
it...\r\n@@ 16
it?\r\nC@@ 16
it?\r\nM@@ 16
itchell: 16
itor 16
itself@@ 16
izzy: 16
journey@@ 16
ky@@ 16
kylar: 16
landlord 16
leanor: 16
lec@@ 16
letters 16
lias: 16
lift@@ 16
limit@@ 16
logical 16
lon@@ 16
ma's 16
maid@@ 16
marriage 16
matter. 16
mean... 16
measure@@ 16
memories@@ 16
messaged 16
messenger 16
mil: 16
mini 16
moving@@ 16
muffins 16
mush@@ 16
nah, 16
names@@ 16
native 16
nearby 16
nearby@@ 16
need, 16
nephew 16
ney@@ 16
nicely 16
nicer 16
nightmar@@ 16
nightmare@@ 16
num@@ 16
o-@@ 16
obbs: 16
of, 16
ofia: 16
oger: 16
ole@@ 16
olive 16
one?\r\n@@ 16
ones. 16
onor: 16
ophia: 16
opold: 16
oppos@@ 16
ored@@ 16
org@@ 16
orna: 16
ou: 16
oug: 16
overall 16
p.@@ 16
packs 16
pain. 16
paperwork 16
payment@@ 16
pays 16
peanut 16
ped@@ 16
perform@@ 16
photo>@@ 16
photograph@@ 16
phras@@ 16
piss 16
plat@@ 16
pleasure. 16
ples@@ 16
port 16
positi@@ 16
pressed 16
problems. 16
procedure@@ 16
product 16
programme 16
pump@@ 16
r: 16
race 16
rake: 16
range 16
rap@@ 16
reasonable 16
recognise 16
recover 16
relevant 16
renov@@ 16
repaired 16
response 16
responsi@@ 16
river 16
rows 16
rr@@ 16
rystal: 16
savings 16
se! 16
seasons 16
see? 16
sem@@ 16
series, 16
serving 16
she?\r\n@@ 16
shelter 16
shit. 16
shots 16
side. 16
simple@@ 16
singer 16
sir, 16
sno@@ 16
solution@@ 16
source 16
spar@@ 16
stair@@ 16
stone 16
stop, 16
stre@@ 16
subscri@@ 16
sudden 16
suppli@@ 16
sweetie, 16
swimming@@ 16
table. 16
tain@@ 16
tall 16
technical 16
temperature 16
terrible, 16
them! 16
there?\r\nD@@ 16
thro@@ 16
thum@@ 16
time.\r\nJ@@ 16
time.\r\nS@@ 16
toast@@ 16
tomorrow! 16
tool@@ 16
tour@@ 16
tracking 16
transport@@ 16
traum@@ 16
trav@@ 16
travelled 16
twisted 16
typic@@ 16
udy 16
uj@@ 16
uki: 16
ulia: 16
underst@@ 16
unexpected 16
unlike 16
use, 16
useless@@ 16
uuu@@ 16
vacuum 16
ven: 16
ver. 16
version@@ 16
videos@@ 16
vin@@ 16
warming 16
warn 16
weather. 16
well? 16
whom@@ 16
wish, 16
yla 16
ylan: 16
ylin: 16
zy@@ 16
♂@@ 16
🏻@@ 16
👏👏@@ 16
😍😍@@ 16
😡@@ 16
!!!!!!!@@ 15
!!!\r\nN@@ 15
!\nPeter: 15
!\nR@@ 15
!\r\nCaleb: 15
!\r\nCarrie: 15
!\r\nClara: 15
!\r\nGabriel: 15
!\r\nKyle: 15
!\r\nLogan: 15
!\r\nMegan: 15
!\r\nMolly: 15
!\r\nNicky: 15
!\r\nSamantha: 15
!\r\nScott: 15
!\r\nToby: 15
!\r\nTommy: 15
!\r\nTracy: 15
"Ali: 15
"Audrey: 15
"Brad 15
"Brenda: 15
"Brit@@ 15
"Charlotte: 15
"Dani@@ 15
"Don: 15
"Eli@@ 15
"Emm@@ 15
"Jamie: 15
"Jen@@ 15
"Jeremy 15
"Jessie 15
"Jimmy 15
"Jo 15
"Joan: 15
"Krist@@ 15
"Lena 15
"Lydia: 15
"Mel 15
"Nat@@ 15
"Nathan: 15
"Par@@ 15
"Patty 15
"Ray: 15
"Rebecca: 15
"Sebastian: 15
"Tracy 15
((@@ 15
(I 15
...\r\nAlex: 15
...\r\nLaura: 15
...\r\nMatt: 15
...\r\nSarah: 15
.\r\nBarry: 15
.\r\nCarlos: 15
.\r\nDarrell: 15
.\r\nElisabeth: 15
.\r\nFreddie: 15
.\r\nGail: 15
.\r\nHolly: 15
.\r\nIzzy: 15
.\r\nJax: 15
.\r\nJeanette: 15
.\r\nJude: 15
.\r\nKaz: 15
.\r\nKonrad: 15
.\r\nLola: 15
.\r\nLouis: 15
.\r\nMeg: 15
.\r\nMelanie: 15
.\r\nMummy: 15
.\r\nOliver: 15
.\r\nRebecca: 15
.\r\nRodney: 15
.\r\nSusie: 15
.\r\nVicky: 15
.\r\nY@@ 15
10.", 15
1pm 15
20% 15
23 15
25th 15
26th 15
2moro 15
2morrow@@ 15
6:30 15
6th 15
7.@@ 15
90 15
:'(@@ 15
:-D 15
:-p@@ 15
:15 15
:D\r\nJames: 15
:D\r\nMike: 15
:D\r\nSarah: 15
;( 15
;t 15
?\nAnne: 15
?\nKelly: 15
?\nLinda: 15
?\r\nAgatha: 15
?\r\nCarrie: 15
?\r\nConnie: 15
?\r\nConnor: 15
?\r\nCourtney: 15
?\r\nDerek: 15
?\r\nElias: 15
?\r\nEvie: 15
?\r\nGwen: 15
?\r\nHarper: 15
?\r\nHillary: 15
?\r\nJanet: 15
?\r\nJax: 15
?\r\nKylie: 15
?\r\nLeslie: 15
?\r\nMay: 15
?\r\nNat: 15
?\r\nPapa: 15
?\r\nPauline: 15
?\r\nRandy: 15
?\r\nRegina: 15
?\r\nRosie: 15
?\r\nSheila: 15
?\r\nVal: 15
?\r\nZack: 15
AGAIN@@ 15
Aaa@@ 15
Adam's 15
Adrien: 15
Alexander 15
Alphonse 15
Amanda's 15
Aust@@ 15
BTW@@ 15
Back 15
Bald@@ 15
Barb 15
Bay@@ 15
Black@@ 15
Blue 15
Bol@@ 15
Bradley 15
Brown: 15
Carol's 15
Carolina: 15
Carri@@ 15
Cat@@ 15
Charlott@@ 15
Cheryl 15
Chris' 15
Chris@@ 15
Chrissy: 15
Chuck 15
Congrat@@ 15
Cul@@ 15
Cyber 15
DO 15
DS@@ 15
Dana 15
Denis 15
EVER@@ 15
EVERY@@ 15
Each 15
Ehh. 15
Evelyn: 15
Finn@@ 15
For@@ 15
Frederic: 15
Galaxy 15
Germany@@ 15
HAVE 15
Harri@@ 15
Harry, 15
Heard 15
Hehe 15
Henri@@ 15
Hilary 15
Holly: 15
Honestly 15
Hopefully, 15
I? 15
Id@@ 15
Inst@@ 15
Isis: 15
Isl@@ 15
It'd 15
Ivan 15
Jake's 15
Jane@@ 15
Jasmine 15
Joe's 15
Jonas 15
Julian 15
Kell@@ 15
Kids 15
Korean 15
Kylie 15
Lad@@ 15
Leo@@ 15
Leslie 15
Lid@@ 15
Lizz@@ 15
Lucas: 15
Marc 15
Marge 15
Marta 15
Martha@@ 15
Martin: 15
Marty 15
Mary: 15
Math@@ 15
Mean@@ 15
Mexican 15
Nar@@ 15
Ok... 15
Olivier 15
Ouch@@ 15
Part@@ 15
Paul. 15
Pen@@ 15
Philip@@ 15
Ray@@ 15
Read 15
Reese: 15
Rich@@ 15
Richard@@ 15
Robert@@ 15
Room 15
Roy@@ 15
Scar@@ 15
Scot@@ 15
Sergi@@ 15
Sound 15
Spain. 15
Spanish@@ 15
Stea@@ 15
Stef 15
Steph@@ 15
Sue's 15
Susie 15
Sydney 15
TA 15
Tab@@ 15
Tayl@@ 15
Teresa 15
Terri@@ 15
Text 15
Thiago: 15
Thx! 15
Tina@@ 15
Todd: 15
Tok@@ 15
Took 15
Tor@@ 15
Totally 15
UM@@ 15
USA 15
Ugh@@ 15
Ula: 15
United 15
Vic 15
Vietnam 15
Viol@@ 15
Warsaw, 15
Wash@@ 15
What??@@ 15
WhatsApp 15
William@@ 15
Wood@@ 15
Working 15
YY@@ 15
Ye@@ 15
Yuri 15
\nBlake: 15
\nBrian: 15
\nFelix: 15
\nHanna: 15
\nJill: 15
\nJimmy: 15
\nJoan: 15
\nJon: 15
\nLena: 15
\nLisa: 15
\nLogan: 15
\nMacy: 15
\nMad@@ 15
\nMaggie: 15
\nMax: 15
\nMegan: 15
\nPat: 15
\nPhil: 15
\nRalph: 15
\nRay: 15
\nRyan: 15
\nSebastian: 15
\nTatiana: 15
\nTed: 15
\nTrudy: 15
\nWojtek: 15
\r\nAgata: 15
\r\nAllen: 15
\r\nArchie: 15
\r\nBrianna: 15
\r\nConrad: 15
\r\nCurtis: 15
\r\nDakota: 15
\r\nEleonor: 15
\r\nEmil: 15
\r\nEmmy: 15
\r\nEwa: 15
\r\nFanny: 15
\r\nFisher: 15
\r\nGi@@ 15
\r\nGrey: 15
\r\nGuy: 15
\r\nIn@@ 15
\r\nJanine: 15
\r\nJavier: 15
\r\nJojo: 15
\r\nJuliana: 15
\r\nKarina: 15
\r\nKristina: 15
\r\nLennon: 15
\r\nLyn@@ 15
\r\nMalia: 15
\r\nMarco: 15
\r\nMichal: 15
\r\nMinnie: 15
\r\nMoira: 15
\r\nNadine: 15
\r\nNeomi: 15
\r\nPablo: 15
\r\nPascal: 15
\r\nSal@@ 15
\r\nSilvia: 15
\r\nSuzanne: 15
\r\nSydney: 15
\r\nTracey: 15
\r\nTy@@ 15
`)@@ 15
a.m@@ 15
aaaaaaaa@@ 15
aat@@ 15
ac: 15
accused 15
ace: 15
acey 15
ackenzie: 15
acking 15
acqu@@ 15
adley: 15
ael 15
af 15
ahah@@ 15
air: 15
airport, 15
alive@@ 15
ally. 15
alph: 15
ameron: 15
amoun@@ 15
anda: 15
ang 15
anja: 15
announce 15
anywher@@ 15
approach@@ 15
arissa: 15
asmin: 15
assure 15
assy: 15
ate.\r\n@@ 15
athaniel: 15
aur@@ 15
ave 15
avocad@@ 15
ba 15
badly@@ 15
bail@@ 15
banan@@ 15
bang@@ 15
base 15
beat@@ 15
becomes 15
berries 15
besides, 15
billi@@ 15
bir@@ 15
bling 15
blond 15
bon 15
boot 15
bore@@ 15
boys@@ 15
braham: 15
break, 15
bro! 15
brown@@ 15
bugs 15
bullshit 15
bumped 15
castle 15
catering 15
cats@@ 15
century 15
chairs 15
champion@@ 15
change. 15
chase 15
chilling 15
chinese 15
choo@@ 15
chur@@ 15
commit@@ 15
commun@@ 15
compens@@ 15
conn@@ 15
conservative 15
considered 15
counter@@ 15
country, 15
cousin@@ 15
covering 15
crazy. 15
creep@@ 15
crit@@ 15
cultural 15
cutting 15
cya 15
d'you 15
dates@@ 15
days.\r\n@@ 15
decided@@ 15
decorations 15
demanding 15
democrac@@ 15
depress@@ 15
depressed@@ 15
designed 15
dessert@@ 15
difficult. 15
diner 15
direct@@ 15
direction 15
disappeared 15
doable@@ 15
document 15
doesn't@@ 15
doing. 15
door, 15
dor@@ 15
douche@@ 15
dress, 15
dumpl@@ 15
e?\r\nC@@ 15
e?\r\nG@@ 15
e?\r\nMar@@ 15
early. 15
ebastian 15
ection 15
ector: 15
eed@@ 15
eeeee@@ 15
ees 15
eirdre: 15
eless 15
elicia: 15
em: 15
ement. 15
ements 15
emergency@@ 15
emi: 15
employee 15
ences@@ 15
encourages 15
enjamin: 15
enna 15
entirely 15
eroy: 15
erson: 15
ery, 15
estor: 15
ett 15
evening? 15
everytime 15
evid@@ 15
evol@@ 15
exactly! 15
excus@@ 15
exhaust@@ 15
exi: 15
expl@@ 15
explan@@ 15
exter: 15
famil@@ 15
fanc@@ 15
faster 15
fav 15
fav@@ 15
film. 15
fix@@ 15
forgetting 15
fortune 15
friends.", 15
fries 15
frozen 15
fully@@ 15
function 15
function@@ 15
funeral@@ 15
gang 15
garet: 15
gather 15
gging 15
ggle 15
giv@@ 15
glasses 15
glit@@ 15
glov@@ 15
goals 15
goodbye 15
grammar 15
greatest 15
grumpy 15
guys?\r\n@@ 15
hahahaha, 15
hase: 15
haven@@ 15
hem 15
hhhh 15
hike 15
hmm.. 15
holy 15
homeless 15
horri@@ 15
hospital, 15
hostel 15
how’s 15
huge@@ 15
hys: 15
ican 15
icki: 15
ics, 15
ie.", 15
ily. 15
im, 15
imone: 15
impress 15
indeed, 15
independent 15
innie 15
insur@@ 15
internet. 15
iov@@ 15
ison 15
iss 15
issues. 15
istic 15
it...@@ 15
it?\r\nAnna: 15
it?\r\nJohn: 15
it?\r\nPeter: 15
it\r\nS@@ 15
ities. 15
itut@@ 15
iv 15
izes 15
izz@@ 15
k! 15
kay@@ 15
key, 15
kindergarten 15
kno@@ 15
know.", 15
lands 15
languages 15
lay: 15
leather 15
led. 15
legal@@ 15
lic 15
license 15
lie, 15
lifesaver@@ 15
llen: 15
lo 15
logy@@ 15
loria: 15
loss 15
lux@@ 15
ma, 15
machin@@ 15
marked 15
marketing 15
mast@@ 15
master@@ 15
materials 15
mem@@ 15
merry 15
mill@@ 15
min. 15
minor 15
miserable 15
mo 15
monkey 15
moo@@ 15
mountains. 15
naby: 15
nap 15
ne: 15
near@@ 15
nearest 15
neck@@ 15
necklace 15
neighbor 15
neighbors 15
nowhere 15
nuts 15
od 15
ody 15
off.", 15
okay? 15
oli@@ 15
om, 15
orah: 15
ordan 15
ordan: 15
orenzo: 15
organ@@ 15
orothy: 15
orts 15
oud 15
ound, 15
ounding 15
our. 15
ours@@ 15
oversle@@ 15
overtime 15
pairs 15
pancak@@ 15
parano@@ 15
patient@@ 15
pen 15
pencer: 15
perfume 15
phe@@ 15
picks 15
picnic 15
pig@@ 15
plain 15
pound@@ 15
preferred 15
presu@@ 15
princess 15
princess@@ 15
priz@@ 15
progress@@ 15
project, 15
proper@@ 15
protect 15
psychology 15
pulled 15
purcha@@ 15
quality@@ 15
quid 15
quit@@ 15
quiz@@ 15
radi@@ 15
raham: 15
raised 15
ray 15
reas@@ 15
receipt 15
relaxing 15
reli@@ 15
rent. 15
rent: 15
research@@ 15
resist 15
rey 15
rica: 15
s.\r\nG@@ 15
sample 15
sand@@ 15
saw@@ 15
sense. 15
separ@@ 15
sha 15
shape 15
shelf 15
shift@@ 15
shine 15
shooting 15
shouldnt 15
shua: 15
sightsee@@ 15
sir. 15
sister, 15
skipped 15
slipped 15
slo@@ 15
snap@@ 15
soap 15
sober 15
someone. 15
something.", 15
speakers 15
spend@@ 15
stage@@ 15
start, 15
states 15
staying@@ 15
strik@@ 15
stunning 15
stunning@@ 15
stupid. 15
subscription 15
succ@@ 15
suffered 15
suggestions@@ 15
summer, 15
supporting 15
surfing 15
surgery@@ 15
talent@@ 15
talented 15
tern@@ 15
that?\n@@ 15
theat@@ 15
theory 15
threat@@ 15
throughout 15
thx, 15
today?\r\n@@ 15
toine: 15
tooth 15
tourist 15
trac@@ 15
trains 15
trick 15
tricky 15
tto 15
tty 15
turkey 15
two, 15
types 15
ub: 15
uby 15
uby: 15
uce 15
uce: 15
ucia: 15
udith: 15
ue, 15
ue. 15
uka: 15
un 15
uncomfortable 15
unny 15
updated 15
upon 15
usan: 15
ust 15
utumn: 15
uzanne: 15
uzie: 15
vegetar@@ 15
veggies 15
ving@@ 15
vom@@ 15
walk, 15
walk. 15
wave 15
weed 15
well: 15
what?! 15
wishing 15
would've 15
writes 15
yce 15
years.", 15
yep. 15
ym@@ 15
you?\r\nB@@ 15
youve 15
ys@@ 15
z, 15
∀@@ 15
✌️@@ 15
👋@@ 15
😘😘@@ 15
😙@@ 15
😫@@ 15
😭😭@@ 15
😻😻@@ 15
!!!\r\nE@@ 14
!!!\r\nK@@ 14
!!\r\nA@@ 14
!!\r\nE@@ 14
!!\r\nR@@ 14
!\r\nAgnes: 14
!\r\nAva: 14
!\r\nCharles: 14
!\r\nDad: 14
!\r\nHeather: 14
!\r\nHeidi: 14
!\r\nKit: 14
!\r\nLonnie: 14
!\r\nMel: 14
!\r\nNat: 14
!\r\nOwen: 14
!\r\nZara: 14
"Adri@@ 14
"Albert: 14
"Beth 14
"Camilla: 14
"Cheryl: 14
"Dad: 14
"Erin: 14
"Evan: 14
"Greta: 14
"Holly: 14
"Jasmine: 14
"Jess@@ 14
"Judy: 14
"Lee: 14
"Liz 14
"Margaret 14
"Mario: 14
"Mik@@ 14
"Mo@@ 14
"Olga: 14
"Polly: 14
"Ross: 14
"Ruby: 14
"Sandy: 14
"Scott: 14
"Sophia: 14
"Taylor 14
"Theo: 14
"Theresa: 14
"This 14
(Y) 14
...\r\nGeorge: 14
...\r\nHelen: 14
...\r\nJack: 14
.30 14
.\r\nAlbert: 14
.\r\nBart: 14
.\r\nBeatrice: 14
.\r\nCatherine: 14
.\r\nCelia: 14
.\r\nConnor: 14
.\r\nDaisy: 14
.\r\nDaria: 14
.\r\nDenis: 14
.\r\nDiane: 14
.\r\nDirk: 14
.\r\nHillary: 14
.\r\nJan: 14
.\r\nJoanne: 14
.\r\nJuli@@ 14
.\r\nJustin: 14
.\r\nKimberly: 14
.\r\nLawrence: 14
.\r\nPapa: 14
.\r\nRonnie: 14
.com 14
120 14
15-20 14
15-@@ 14
2.@@ 14
2pm@@ 14
30-@@ 14
4-5 14
4.", 14
400 14
5.30 14
5pm 14
8th 14
:'@@ 14
:)\r\nAdam: 14
:)\r\nEmma: 14
:-*@@ 14
:-@@ 14
:40 14
:[@@ 14
?\nCaroline: 14
?\nGreg: 14
?\nSam: 14
?\nSandra: 14
?\nVictor: 14
?\r\nAb@@ 14
?\r\nAli: 14
?\r\nBrett: 14
?\r\nBruce: 14
?\r\nCol@@ 14
?\r\nDonald: 14
?\r\nDora: 14
?\r\nGer@@ 14
?\r\nHunter: 14
?\r\nIsabella: 14
?\r\nJean: 14
?\r\nJosephine: 14
?\r\nKimberly: 14
?\r\nMick: 14
?\r\nRenee: 14
?\r\nStacy: 14
?\r\nStephanie: 14
?\r\nTessa: 14
?\r\nTheo: 14
ALL 14
Adam@@ 14
Alice's 14
Amazing 14
Amazing@@ 14
Ameli@@ 14
Anytime 14
Apparently, 14
Arlo: 14
August 14
Aww@@ 14
BBC 14
Bangkok 14
Beautiful 14
Benson: 14
Bert 14
Bit 14
Book 14
Brett 14
Brown 14
Bruno 14
Bull@@ 14
CA@@ 14
Carl@@ 14
Cathy 14
Chad 14
Cheers 14
Chris's 14
Cold 14
Conn@@ 14
Connor 14
Conor: 14
Conrad: 14
Cour@@ 14
Crazy 14
Cut@@ 14
Daria 14
Day. 14
Dominic 14
Drew 14
Dude 14
East 14
Eastern 14
Easy 14
Emily, 14
Eri@@ 14
Erin 14
Euro@@ 14
Evie: 14
FR@@ 14
Facebook. 14
Faith 14
Fallows: 14
Fantastic 14
Finally@@ 14
GB@@ 14
Gar@@ 14
Gonna 14
Guy 14
HA 14
HE@@ 14
Hah@@ 14
Hann@@ 14
Haz@@ 14
Hazel: 14
Helmut: 14
Help 14
History 14
Hy@@ 14
I'M 14
Ibiz@@ 14
Island 14
James. 14
Jane, 14
Jeff, 14
Jenny's 14
Jenny@@ 14
Joan: 14
Joshua 14
Julia, 14
Julie, 14
Karol@@ 14
Ke@@ 14
Kel@@ 14
Leaving 14
Linda's 14
Lod@@ 14
Lower 14
Luke's 14
Lun@@ 14
Lyn@@ 14
Margar@@ 14
Martha's 14
Merced@@ 14
Mic@@ 14
Mick@@ 14
Mid@@ 14
Mike. 14
Mike@@ 14
Molly, 14
Mort@@ 14
Nad@@ 14
Natalia 14
Natasha 14
Nathan@@ 14
Nope 14
Nothing. 14
Off@@ 14
Olaf 14
Ooh 14
Ox@@ 14
Pam@@ 14
Petra 14
Phe@@ 14
Piet@@ 14
Piotr 14
Place 14
Poland, 14
Princ@@ 14
Probably. 14
Prom@@ 14
Rea@@ 14
Real 14
Really, 14
Rec@@ 14
Ron@@ 14
Ronal@@ 14
Sarah's 14
Sarah, 14
School 14
Shame 14
Sheehan: 14
Shit 14
Shit! 14
Shit@@ 14
Sir@@ 14
Sou@@ 14
Spiderman 14
Sry. 14
Stan@@ 14
Step@@ 14
Steph: 14
Summer 14
Swan@@ 14
Sylvi@@ 14
THE@@ 14
THIS 14
Tate 14
Tessa 14
Thrones@@ 14
Thursday, 14
Tim's 14
Tomorrow, 14
Travis 14
Turn 14
Twit@@ 14
Vegas 14
Venus: 14
Vera: 14
Victoria's 14
Vivian 14
WAY@@ 14
Watching 14
White: 14
Who’s 14
Will, 14
Will@@ 14
Write 14
Wtf@@ 14
XX@@ 14
Yeah? 14
\nAm@@ 14
\nAndrea: 14
\nAnia: 14
\nArchie: 14
\nBella: 14
\nBrenda: 14
\nBruno: 14
\nCaroline: 14
\nGarry: 14
\nGrace: 14
\nGwen: 14
\nHank: 14
\nIsabel: 14
\nIsla: 14
\nJasmine: 14
\nJean: 14
\nJennifer: 14
\nJoseph: 14
\nLuca: 14
\nLuke: 14
\nRicardo: 14
\nSimone: 14
\nSt@@ 14
\nVicky: 14
\nWyatt: 14
\r\nAngella: 14
\r\nAnia: 14
\r\nArtur: 14
\r\nAvery: 14
\r\nCara: 14
\r\nCathie: 14
\r\nDal@@ 14
\r\nDee 14
\r\nDelia: 14
\r\nEmm@@ 14
\r\nGarry: 14
\r\nGrandpa: 14
\r\nGus: 14
\r\nHerbert: 14
\r\nHubert: 14
\r\nJulius: 14
\r\nKamil: 14
\r\nKat: 14
\r\nKe@@ 14
\r\nKelvin: 14
\r\nKent: 14
\r\nLeroy: 14
\r\nLilah: 14
\r\nLilyana: 14
\r\nLora: 14
\r\nLuca: 14
\r\nMacey: 14
\r\nMaddy: 14
\r\nManuel: 14
\r\nMo@@ 14
\r\nMorris: 14
\r\nNel: 14
\r\nNelson: 14
\r\nPaloma: 14
\r\nRaf@@ 14
\r\nRaul: 14
\r\nRylen: 14
\r\nSelma: 14
\r\nSheila: 14
\r\nShelley: 14
\r\nTia: 14
\r\nUte: 14
\r\nVal: 14
\r\nViv: 14
\r\nVlad: 14
\r\nX@@ 14
\r\nYuki: 14
a... 14
abl@@ 14
abr@@ 14
acek: 14
ach, 14
ache 14
acob: 14
acts 14
adcliff: 14
addy: 14
adopt 14
advance@@ 14
advice, 14
agreement@@ 14
ahaha 14
ahahah@@ 14
ai 14
aila 14
airbnb 14
al.", 14
aleigh: 14
alph 14
ami 14
ami: 14
ammy 14
ankle 14
answered 14
anti-@@ 14
antly 14
anyway.", 14
appear 14
appear@@ 14
arb: 14
ardo: 14
ared: 14
arrangement@@ 14
arrived. 14
articles 14
aryl: 14
assing 14
athalie: 14
athew: 14
athie: 14
ative@@ 14
auc@@ 14
aud@@ 14
aurice: 14
aurie: 14
auth@@ 14
author 14
aw 14
award@@ 14
awn: 14
babas: 14
bag. 14
balls 14
bann@@ 14
bby 14
behaved 14
bet! 14
beyond 14
blanket 14
boat@@ 14
bol@@ 14
bored, 14
bothering 14
bottle@@ 14
box. 14
boy, 14
brb@@ 14
breast@@ 14
bright 14
bro. 14
broke. 14
burgers@@ 14
buses 14
butt@@ 14
c'mon, 14
campus 14
card, 14
carlet: 14
carried 14
cars@@ 14
cats. 14
celyn: 14
center@@ 14
chann@@ 14
charge@@ 14
cheap, 14
chee@@ 14
chocolate@@ 14
citizen@@ 14
clown 14
coach@@ 14
coconut 14
coll@@ 14
coming! 14
communic@@ 14
community 14
compare 14
complaint 14
compli@@ 14
complicated@@ 14
conc@@ 14
conf@@ 14
consist@@ 14
construction 14
consu@@ 14
corporate 14
cos@@ 14
cott@@ 14
covers 14
crossing 14
cuis@@ 14
curry 14
cuti@@ 14
dancing@@ 14
dash@@ 14
dated 14
delighted 14
departing 14
depend@@ 14
describes 14
devastated 14
develop@@ 14
developing 14
die, 14
disagree 14
diver@@ 14
dollar@@ 14
dollars. 14
draft 14
drama@@ 14
drinks. 14
drive, 14
drugs 14
dumb@@ 14
dye 14
e?\r\nKate: 14
each. 14
eam_V: 14
eanne: 14
eather 14
eck: 14
education 14
effect@@ 14
effort@@ 14
effrey: 14
eless@@ 14
elin@@ 14
else's 14
email. 14
emima: 14
emy: 14
encour@@ 14
ene@@ 14
ener@@ 14
ent: 14
enthusiastic 14
erena: 14
error 14
ers! 14
ert 14
est, 14
eta: 14
euros 14
everybody@@ 14
everyone! 14
excited! 14
exhibit@@ 14
expert@@ 14
eyi: 14
fair. 14
farm@@ 14
fashion@@ 14
feedback 14
fiel@@ 14
fill@@ 14
flexible 14
floor, 14
focus@@ 14
foreign@@ 14
frame 14
freez@@ 14
fried 14
frustrating@@ 14
fur@@ 14
gat@@ 14
gged 14
gh, 14
gimme 14
glass@@ 14
gle@@ 14
global 14
gossip@@ 14
gossiping 14
guilty 14
gun 14
hah 14
hah, 14
handi: 14
hello, 14
hhh, 14
hhhh@@ 14
hid@@ 14
history, 14
hmmm 14
ho 14
home?\r\n@@ 14
homemade 14
hone@@ 14
hub@@ 14
hungry. 14
icah: 14
ice-@@ 14
icha@@ 14
icholas: 14
icial 14
ickolas: 14
ide 14
iersten: 14
iew@@ 14
iffany: 14
ilie: 14
improv@@ 14
inah: 14
included 14
infor@@ 14
ingly 14
insane 14
insid@@ 14
instrum@@ 14
insul@@ 14
interpre@@ 14
into@@ 14
introduced 14
involved@@ 14
iobhan: 14
ious@@ 14
iphone 14
irginia: 14
ish, 14
issa@@ 14
it!\n@@ 14
it.\r\nJohn: 14
it\r\nBen: 14
it\r\nMary: 14
item 14
jail 14
jerk@@ 14
job? 14
keep@@ 14
keyboard 14
kicking 14
kid, 14
kins 14
kitchen, 14
know...@@ 14
ks! 14
lak@@ 14
landed@@ 14
lasts 14
lav@@ 14
leader 14
learnt 14
lecture. 14
lement@@ 14
ligh@@ 14
like: 14
lingu@@ 14
lisha: 14
little, 14
lob@@ 14
located 14
longest 14
loose@@ 14
los: 14
loving 14
lower@@ 14
make-up 14
managing 14
maybe? 14
me?@@ 14
mea@@ 14
meat, 14
medicin@@ 14
mel 14
midnight@@ 14
mit 14
mock 14
monday@@ 14
motivated 14
mountain 14
movies, 14
murder 14
n't, 14
n't@@ 14
nan: 14
neighbourhood@@ 14
nes@@ 14
newspaper@@ 14
nold 14
noticed@@ 14
now?\n@@ 14
o'clock.", 14
obby 14
obviously@@ 14
oby 14
odney: 14
often. 14
ohhh 14
oil 14
ole 14
ome, 14
on-@@ 14
onathan: 14
one-@@ 14
onion@@ 14
online, 14
only, 14
onzo: 14
ook@@ 14
orace: 14
orge 14
ories 14
orraine: 14
orrow 14
ortens@@ 14
ousie: 14
ovan: 14
packed@@ 14
parent 14
part, 14
passeng@@ 14
passport 14
pasta@@ 14
pe, 14
picture. 14
pillow@@ 14
pipe 14
places, 14
plan, 14
plumber 14
pock@@ 14
poll 14
pollo: 14
popcorn@@ 14
powerful 14
pretending 14
price, 14
privac@@ 14
probably. 14
production 14
professor@@ 14
prom 14
promo@@ 14
promote 14
promoting 14
proof 14
provided 14
psy@@ 14
punct@@ 14
punish@@ 14
puppy 14
queen 14
radley: 14
raining@@ 14
range@@ 14
rant: 14
react 14
reading@@ 14
really?@@ 14
recogn@@ 14
recommendation 14
recre@@ 14
reduc@@ 14
reen: 14
rehearsal 14
relief@@ 14
reliev@@ 14
relieved 14
reminder 14
remote 14
rence 14
rend@@ 14
renda: 14
repair@@ 14
repl@@ 14
request, 14
request@@ 14
reschedule@@ 14
risa: 14
risten: 14
road, 14
role@@ 14
roy@@ 14
runo: 14
s?\r\nAnna: 14
safe. 14
sail@@ 14
sandwich 14
sb 14
scan@@ 14
scand@@ 14
scarf 14
schedule. 14
scob@@ 14
search@@ 14
seph: 14
servic@@ 14
sey 14
sharp 14
sheets 14
ships 14
shock 14
shocking 14
shoo@@ 14
shout 14
shower, 14
shower@@ 14
signific@@ 14
simple. 14
sinc@@ 14
sme: 14
smell@@ 14
smile@@ 14
soli@@ 14
sooner@@ 14
soooooo 14
soul 14
soul@@ 14
soy 14
speci@@ 14
special, 14
spic@@ 14
spin@@ 14
spl@@ 14
spring@@ 14
stain@@ 14
staring 14
ston 14
stric@@ 14
stuffed 14
suffer 14
suitcase 14
superhero@@ 14
surgery. 14
syn@@ 14
system. 14
teams 14
temp@@ 14
tend@@ 14
test, 14
th.", 14
that'll 14
theater 14
themed 14
themselves@@ 14
ther, 14
there?\n@@ 14
thousands 14
thru 14
ti 14
tir@@ 14
topics 14
touched 14
tourists 14
traffic, 14
tram 14
trousers 14
truck@@ 14
tutorial 14
twee@@ 14
ually@@ 14
udre@@ 14
uisa: 14
ummer 14
ummer: 14
unable 14
unfair 14
urg@@ 14
uring 14
useful@@ 14
usi@@ 14
uti@@ 14
uzy: 14
vaccin@@ 14
van 14
ve.\r\n@@ 14
ver, 14
ver\n@@ 14
vie 14
web@@ 14
what??@@ 14
when? 14
wil@@ 14
with? 14
wn 14
worn 14
xDDD@@ 14
xP@@ 14
y" 14
ya. 14
yeah? 14
year! 14
yet! 14
yle 14
youn@@ 14
yum@@ 14
zero 14
|@@ 14
~@@ 14
͡@@ 14
’t, 14
€ 14
️ 14
🏽@@ 14
💩@@ 14
😂😂 14
😖@@ 14
😝@@ 14
!!!!!!!!!!!!@@ 13
!!!!!@@ 13
!\nJohn: 13
!\nMary: 13
!\r\nAria: 13
!\r\nAshley: 13
!\r\nBobby: 13
!\r\nClaire: 13
!\r\nCora: 13
!\r\nDorothy: 13
!\r\nFinn: 13
!\r\nJean: 13
!\r\nKatie: 13
!\r\nLee: 13
!\r\nLilly: 13
!\r\nLouise: 13
!\r\nMelissa: 13
!\r\nO@@ 13
!\r\nPearl: 13
!\r\nRandy: 13
!\r\nRyan: 13
!\r\nSophie: 13
!\r\nThomas: 13
"Ab@@ 13
"Angela: 13
"Barry: 13
"Benjamin: 13
"Billy 13
"Blake: 13
"Caron 13
"Char@@ 13
"Dav@@ 13
"Dora: 13
"Evelyn: 13
"Hen@@ 13
"Isla: 13
"Jen: 13
"Jonathan: 13
"Michelle 13
"Ollie: 13
"Rita 13
"Roy: 13
"Violet: 13
********@@ 13
-- 13
...? 13
...I'm 13
...\r\nDaisy: 13
...\r\nDaniel: 13
...\r\nMonica: 13
.\r\nAbby: 13
.\r\nAnita: 13
.\r\nCaro: 13
.\r\nClaudia: 13
.\r\nDennis: 13
.\r\nEllie: 13
.\r\nJasmine: 13
.\r\nJessie: 13
.\r\nJo: 13
.\r\nJosephine: 13
.\r\nJustine: 13
.\r\nKatie: 13
.\r\nKev: 13
.\r\nLindsey: 13
.\r\nNat: 13
.\r\nPauline: 13
.\r\nRoss: 13
.\r\nSamuel: 13
.\r\nSerena: 13
.\r\nSh@@ 13
.\r\nShona: 13
.\r\nSid: 13
.\r\nSienna: 13
.\r\nSteven: 13
.\r\nTimmy: 13
10.@@ 13
14th 13
150 13
2000 13
29th 13
3.@@ 13
3:30 13
4pm 13
55 13
6th@@ 13
:)\r\nAnn: 13
:)\r\nNatalie: 13
:x@@ 13
<file_photo>\r\nJane: 13
>:(@@ 13
?!! 13
?\nEve: 13
?\nHelen: 13
?\nMark: 13
?\nPatricia: 13
?\r\nAllie: 13
?\r\nAubrey: 13
?\r\nCaleb: 13
?\r\nCraig: 13
?\r\nDamian: 13
?\r\nDebbie: 13
?\r\nElena: 13
?\r\nFaith: 13
?\r\nFelix: 13
?\r\nGill: 13
?\r\nHank: 13
?\r\nJesse: 13
?\r\nJoshua: 13
?\r\nKitty: 13
?\r\nKris: 13
?\r\nLena: 13
?\r\nLou: 13
?\r\nMarty: 13
?\r\nMathew: 13
?\r\nMelanie: 13
?\r\nPaige: 13
?\r\nPoppy: 13
?\r\nStanley: 13
?\r\nViolet: 13
AP@@ 13
Aar@@ 13
Absolut@@ 13
Addison: 13
Adele 13
Agn@@ 13
Agreed@@ 13
Aiden 13
Alic@@ 13
Alright@@ 13
Amber: 13
Andrew's 13
Annette 13
Antwer@@ 13
Apart 13
Archie 13
Are@@ 13
Arm@@ 13
Asian 13
Aveng@@ 13
Aw, 13
B&@@ 13
BE@@ 13
BUT 13
Babe, 13
Barry 13
Bast@@ 13
Beatrice 13
Bey@@ 13
Bill, 13
Birth@@ 13
Boston@@ 13
Brazil@@ 13
Busy 13
Cab@@ 13
Camilla 13
Captain 13
Cardiff 13
Carlo@@ 13
Carmen: 13
Cath@@ 13
Cecil@@ 13
Cel@@ 13
Certainly 13
Chan@@ 13
Chick@@ 13
Chin@@ 13
Chriss@@ 13
Cind@@ 13
Clarisse: 13
Colin 13
Colombi@@ 13
Congratulations! 13
Cook@@ 13
Corn@@ 13
Crai@@ 13
Cub@@ 13
DR@@ 13
Dan, 13
Dann@@ 13
Darren 13
Dave@@ 13
Det@@ 13
Donn@@ 13
ES 13
Egy@@ 13
Elisabeth 13
English. 13
Facebook, 13
Felix 13
Fif@@ 13
Filip 13
Fion@@ 13
Fiona's 13
Foo@@ 13
Found 13
Freda 13
Freda: 13
Free 13
Fri 13
Gil@@ 13
God! 13
HP 13
Hahah@@ 13
Half 13
Hanna 13
Harris: 13
Harvey 13
Hate 13
Hawai@@ 13
Hill@@ 13
Hmmm@@ 13
Ho@@ 13
Honestly, 13
Hop@@ 13
Hot@@ 13
Hugo 13
Huh@@ 13
Hun 13
IS@@ 13
Ikea@@ 13
Indeed 13
Ireland 13
James, 13
Jamie, 13
Jamie: 13
Je@@ 13
Jeez@@ 13
Jeffrey 13
Jesus, 13
Joanne 13
Jodie 13
Joe, 13
Joe@@ 13
Johny: 13
Joseph@@ 13
Joy 13
Juan 13
Karen's 13
Karen@@ 13
Kay@@ 13
Keith 13
Kend@@ 13
Kenz@@ 13
Kim: 13
Kitty 13
Know 13
Las 13
Later 13
Laura's 13
Law@@ 13
Len@@ 13
List@@ 13
Lori 13
Luis 13
Maj@@ 13
Mak@@ 13
Marie: 13
Marion 13
Market 13
Martha, 13
Mary. 13
Matild@@ 13
Matt, 13
Matthew@@ 13
Meghan 13
Mia@@ 13
Michael's 13
Micro@@ 13
Monica, 13
Mur@@ 13
Nancy, 13
Northern 13
Norway 13
Not@@ 13
OH 13
OS@@ 13
October. 13
Oli 13
Oli: 13
Omg@@ 13
Oop@@ 13
Over@@ 13
Owena: 13
Patric@@ 13
Pete, 13
Pop@@ 13
Pow@@ 13
Prague 13
Problem 13
RA@@ 13
RU 13
Randy 13
Rather 13
Rey@@ 13
Rob's 13
Rock@@ 13
Row@@ 13
SHO@@ 13
Sab@@ 13
Sam: 13
See? 13
Seth 13
Shakespear@@ 13
Sheldon 13
Sophie's 13
Spo@@ 13
Srsly@@ 13
Stat@@ 13
Sur@@ 13
Sweetie, 13
Syd@@ 13
THING@@ 13
Tex@@ 13
Ther@@ 13
They@@ 13
Thi@@ 13
Thomas, 13
Thrones 13
Tim: 13
Tina's 13
Trev@@ 13
Up 13
Vic: 13
WOW! 13
WOW@@ 13
WTF 13
Went 13
West@@ 13
What?@@ 13
Wher@@ 13
Why, 13
Works 13
Youre 13
Zeal@@ 13
\nAlan: 13
\nAnthony: 13
\nCatherine: 13
\nCharles: 13
\nCheryl: 13
\nClara: 13
\nDexter: 13
\nDonald: 13
\nHeidi: 13
\nJamie: 13
\nJustine: 13
\nKathryn: 13
\nLola: 13
\nLuis: 13
\nMeghan: 13
\nPhoebe: 13
\nStefano: 13
\nStephanie: 13
\nWill: 13
\nZach: 13
\r\nAle@@ 13
\r\nAlene: 13
\r\nAsia: 13
\r\nBernie: 13
\r\nBrody: 13
\r\nBryce: 13
\r\nBubbles: 13
\r\nBunny: 13
\r\nCecily: 13
\r\nCh@@ 13
\r\nCharity: 13
\r\nCl@@ 13
\r\nCooper: 13
\r\nCristian: 13
\r\nDella: 13
\r\nDon@@ 13
\r\nDot: 13
\r\nElie: 13
\r\nGabriela: 13
\r\nGeri: 13
\r\nGil: 13
\r\nHal: 13
\r\nJana: 13
\r\nJocelyn: 13
\r\nJohny: 13
\r\nKenneth: 13
\r\nKenny: 13
\r\nLandon: 13
\r\nLindsey: 13
\r\nLiz@@ 13
\r\nMariah: 13
\r\nMarika: 13
\r\nMart@@ 13
\r\nMiguel: 13
\r\nMuriel: 13
\r\nNeville: 13
\r\nPayten: 13
\r\nPetra: 13
\r\nRandall: 13
\r\nRobbie: 13
\r\nRos@@ 13
\r\nShayla: 13
\r\nSidney: 13
\r\nStef@@ 13
\r\nTory: 13
\r\nVincent: 13
\r\nWade: 13
\r\nWilma: 13
\r\nZuza: 13
^)@@ 13
_ 13
__@@ 13
abo@@ 13
abri@@ 13
accepted@@ 13
ace, 13
achiev@@ 13
acin@@ 13
actress 13
ad. 13
adopted 13
adorable@@ 13
advantage 13
adver@@ 13
affordable 13
ag: 13
ah! 13
aiming 13
aj@@ 13
ala 13
alcohol. 13
aley: 13
all? 13
ama: 13
amal: 13
amazed 13
amer@@ 13
ames: 13
ammond: 13
an? 13
ander: 13
anie 13
anime 13
anna's 13
annie: 13
anniversary. 13
annon: 13
ano@@ 13
anti@@ 13
anytime@@ 13
apartment, 13
apolog@@ 13
app. 13
appointment. 13
aquin: 13
arch@@ 13
areth: 13
aria: 13
aron 13
arrie: 13
ately@@ 13
athleen: 13
atija: 13
attacked 13
attemp@@ 13
attention@@ 13
attitude 13
awfully 13
awww 13
axon: 13
aye: 13
ayton: 13
b-day 13
b4 13
babes 13
babysit@@ 13
back? 13
bathroom. 13
bay 13
beach, 13
beans 13
beer, 13
benefit 13
bey: 13
bills@@ 13
birds 13
bite 13
blocking 13
bly@@ 13
brave 13
broke@@ 13
brun@@ 13
bu 13
burn@@ 13
c'mon 13
cakes 13
campaign 13
car\n@@ 13
carrot 13
carrying 13
casser@@ 13
channel@@ 13
charg@@ 13
charging 13
charming 13
checked@@ 13
ched@@ 13
chess 13
childhood 13
chocol@@ 13
cities 13
civil 13
ck, 13
claim@@ 13
classroom 13
climate 13
cling 13
co. 13
code@@ 13
coincid@@ 13
colon@@ 13
colors 13
combination 13
comfort 13
commerci@@ 13
common@@ 13
completely@@ 13
computer. 13
conferenc@@ 13
confir@@ 13
conflic@@ 13
congratulations 13
constant 13
contain@@ 13
contr@@ 13
conversations 13
coordin@@ 13
corpor@@ 13
cott: 13
cottage 13
cough 13
countries@@ 13
court 13
cous@@ 13
crimin@@ 13
crow@@ 13
cuisine 13
cups 13
curi@@ 13
cute, 13
danger@@ 13
days? 13
days?\r\n@@ 13
deadline. 13
deadline@@ 13
debate 13
decisions 13
deep@@ 13
degree 13
delet@@ 13
delight@@ 13
der, 13
description 13
desper@@ 13
desser@@ 13
diary 13
diction@@ 13
didn't, 13
didn@@ 13
differences 13
dinner? 13
discussion 13
distur@@ 13
do?@@ 13
doll 13
done! 13
dont@@ 13
doubts 13
downloading 13
drag@@ 13
drain@@ 13
dreams@@ 13
driver's 13
drops 13
dumbas@@ 13
dust@@ 13
e.\r\nN@@ 13
e.\r\nTom: 13
e?\r\nLaura: 13
eable 13
eam@@ 13
earl: 13
ears@@ 13
earth@@ 13
easi@@ 13
easily@@ 13
eatrix: 13
edro: 13
eev@@ 13
eigh 13
elyn 13
embar@@ 13
ement, 13
encourage 13
enelope: 13
enise: 13
enning: 13
ense@@ 13
entrance. 13
environ@@ 13
equally 13
eresa: 13
erg@@ 13
erge: 13
ernadette: 13
ese: 13
ester@@ 13
et's 13
etc, 13
eth 13
event. 13
explaining 13
f. 13
facial 13
farm 13
father. 13
fault. 13
fave 13
feet 13
fer 13
fifa 13
file, 13
flash 13
fle@@ 13
flights@@ 13
flirting 13
flowers@@ 13
folk 13
fool 13
formal@@ 13
former 13
fortun@@ 13
forwarded 13
free? 13
front@@ 13
fru@@ 13
fucked@@ 13
funding 13
furniture@@ 13
fying@@ 13
garlic@@ 13
ggy: 13
giant 13
gin 13
gin@@ 13
gingerbread 13
girl's 13
good.", 13
gorgeous! 13
graduated 13
graduation 13
grocer@@ 13
grounded 13
guessing 13
guil@@ 13
gy 13
hair, 13
hairdry@@ 13
han 13
happen. 13
have?\r\n@@ 13
heal@@ 13
heat@@ 13
hehe, 13
highest 13
hill@@ 13
himself, 13
hmmm@@ 13
homework. 13
hr@@ 13
hubby 13
iamh: 13
ianna: 13
iano: 13
ich 13
icking 13
icks 13
icole 13
idea... 13
idney: 13
igal: 13
ign 13
ignor@@ 13
illian 13
im's 13
imagine. 13
impact 13
incredible 13
influenc@@ 13
information@@ 13
ing" 13
ings, 13
inno@@ 13
insley: 13
intention@@ 13
interi@@ 13
intern@@ 13
iot@@ 13
iovanni: 13
ir: 13
is... 13
isi: 13
ism. 13
it!\r\nJ@@ 13
it!\r\nS@@ 13
it?\r\nA@@ 13
it?\r\nB@@ 13
it\r\nKate: 13
itia: 13
ity: 13
iv@@ 13
izing 13
izzy 13
joking. 13
ketch@@ 13
kk 13
knock 13
knows? 13
kyler: 13
l8@@ 13
ladies, 13
lame 13
laptop. 13
late! 13
laun@@ 13
lazy@@ 13
league 13
lene 13
lenn: 13
lesson. 13
lessons@@ 13
levels 13
line, 13
liqu@@ 13
little. 13
loooo@@ 13
lost. 13
lun@@ 13
magaz@@ 13
maine: 13
mainten@@ 13
map 13
media@@ 13
medicine 13
mention@@ 13
mentions 13
mes 13
messing 13
minim@@ 13
mirror 13
miser@@ 13
mond 13
mother.", 13
motivation 13
mountain@@ 13
movies. 13
museum. 13
mushroom 13
mut@@ 13
nacho@@ 13
navig@@ 13
ne. 13
nearb@@ 13
nee@@ 13
ner: 13
ness, 13
nia 13
no? 13
nope 13
nose@@ 13
note@@ 13
np 13
obert: 13
odd 13
off! 13
oil, 13
ok?\n@@ 13
olin: 13
omet@@ 13
oney: 13
only. 13
ooper: 13
oph@@ 13
opinion, 13
orelai: 13
organ: 13
otic 13
ought 13
ourselves@@ 13
outsid@@ 13
oven@@ 13
overreact@@ 13
overwhel@@ 13
owena: 13
p.m.@@ 13
pad 13
paid, 13
painful@@ 13
panick@@ 13
pap@@ 13
parents.", 13
park. 13
participants 13
pass, 13
passes 13
peaceful 13
people.", 13
pharmac@@ 13
photographer 13
pint 13
plants@@ 13
players@@ 13
plug 13
plum@@ 13
plz@@ 13
poor@@ 13
pper 13
practice@@ 13
pran@@ 13
prick@@ 13
prison@@ 13
procedure 13
procrastin@@ 13
promoted 13
proposal 13
pts 13
pul@@ 13
pure@@ 13
ques@@ 13
questions, 13
quitting 13
quote 13
ram@@ 13
ras@@ 13
rash 13
rat@@ 13
re: 13
reaction 13
ready? 13
really! 13
recommendations@@ 13
recovering 13
reference 13
rehearsal@@ 13
relationship. 13
reliable 13
rely 13
remembers 13
remot@@ 13
replac@@ 13
rest, 13
restaurant, 13
retake 13
revol@@ 13
ria 13
ria: 13
ric 13
rich: 13
right?\r\nR@@ 13
rigitte: 13
rob@@ 13
roll 13
rude@@ 13
rules 13
ryk: 13
sake 13
sale. 13
salsa 13
samples 13
screw 13
screw@@ 13
scri@@ 13
seating 13
secure 13
self@@ 13
selfi@@ 13
selfie 13
semester@@ 13
serious, 13
seven 13
sheet@@ 13
shif@@ 13
shin@@ 13
shing 13
shoes. 13
shops@@ 13
shou@@ 13
single@@ 13
sink 13
sive@@ 13
sky 13
sleep, 13
slides 13
social@@ 13
solved 13
sometimes, 13
sort@@ 13
spac@@ 13
special. 13
stop. 13
stopping 13
stories@@ 13
strang@@ 13
strategy 13
streaming 13
street, 13
style, 13
subjects 13
subst@@ 13
successful 13
sudden@@ 13
sup 13
surger@@ 13
sweetheart, 13
t-shirt 13
tablet 13
tac@@ 13
tag@@ 13
techno@@ 13
ter's 13
th-@@ 13
there'll 13
there.\r\nJ@@ 13
thing's 13
throat@@ 13
tick@@ 13
tin: 13
tips@@ 13
tires 13
together? 13
tonia: 13
too.. 13
trailer@@ 13
trial 13
trouser@@ 13
truc@@ 13
tt: 13
tur: 13
tut@@ 13
ty. 13
uff@@ 13
ugh@@ 13
umbrella 13
uncle's 13
underground 13
universit@@ 13
upper 13
urinder: 13
urs@@ 13
urt@@ 13
urtis: 13
used@@ 13
valent@@ 13
vegetables@@ 13
vet, 13
vey 13
vil@@ 13
virus 13
vitamin 13
voice@@ 13
volume 13
voting 13
w. 13
w/@@ 13
waiting. 13
wakes 13
waking 13
walks 13
wardrobe 13
warning 13
web 13
website. 13
wed@@ 13
wedding, 13
we’ve 13
wia: 13
windows 13
wing@@ 13
winning 13
winter. 13
worker 13
workout 13
worries! 13
would, 13
wrapped 13
x-@@ 13
xp@@ 13
xxx 13
xxx\r\nSue: 13
yatt: 13
yd@@ 13
ydia: 13
ydney: 13
yler 13
ylvester: 13
ylvia 13
you!!! 13
you!!@@ 13
you?\r\nE@@ 13
yron: 13
yt 13
yummy 13
é 13
ó@@ 13
☺️@@ 13
ー@@ 13
＾@@ 13
💃@@ 13
😍😍😍@@ 13
😚@@ 13
😜 13
😜😜@@ 13
😥@@ 13
🤞@@ 13
🤣🤣@@ 13
🤩@@ 13
!!!\r\nT@@ 12
!\r\nAbigail: 12
!\r\nAl: 12
!\r\nAmelia: 12
!\r\nBar@@ 12
!\r\nBarbara: 12
!\r\nEdward: 12
!\r\nErin: 12
!\r\nEvie: 12
!\r\nGail: 12
!\r\nGer@@ 12
!\r\nJan: 12
!\r\nJasmine: 12
!\r\nJerry: 12
!\r\nLeah: 12
!\r\nLena: 12
!\r\nPam: 12
!\r\nPhoebe: 12
!\r\nPolly: 12
!\r\nRalph: 12
!\r\nVictoria: 12
"Alexander: 12
"Alic@@ 12
"Anthony: 12
"Austin: 12
"Ber@@ 12
"Carmen: 12
"Caron: 12
"Damian: 12
"Donald: 12
"Erin 12
"Francis: 12
"Gemma: 12
"Janet 12
"Jen 12
"Lea: 12
"Lizzy: 12
"Lu@@ 12
"Maggie: 12
"Mason 12
"Mum: 12
"Nad@@ 12
"Randy: 12
"Rita: 12
"Someone 12
"Sonia 12
"Teddy: 12
"Today 12
"Tom's 12
$. 12
', 12
-_- 12
-free 12
...\r\nAdam: 12
...\r\nLinda: 12
...\r\nLuke: 12
...\r\nMark: 12
...but 12
.00 12
.\r\nAndrea: 12
.\r\nAnthony: 12
.\r\nBella: 12
.\r\nCate: 12
.\r\nCharlotte: 12
.\r\nConnie: 12
.\r\nCourtney: 12
.\r\nDrew: 12
.\r\nElena: 12
.\r\nEvelyn: 12
.\r\nGwen: 12
.\r\nHugo: 12
.\r\nHunter: 12
.\r\nJad@@ 12
.\r\nJoseph: 12
.\r\nMats: 12
.\r\nMelissa: 12
.\r\nMonika: 12
.\r\nMorgan: 12
.\r\nO@@ 12
.\r\nRay: 12
.\r\nRenee: 12
.\r\nRich: 12
.\r\nSylvia: 12
.\r\nTheo: 12
.\r\nVic: 12
.\r\nWolf: 12
1,@@ 12
2.5 12
2017@@ 12
2019 12
2morrow 12
2nd@@ 12
30% 12
38 12
3r@@ 12
70 12
80s 12
:)\r\nAlice: 12
:)\r\nLaura: 12
:)\r\nLisa: 12
:)\r\nTim: 12
://@@ 12
:D\r\nFred: 12
:D\r\nJack: 12
:×:×:×@@ 12
;D 12
<file_photo>\r\nE@@ 12
<file_photo>\r\nMary: 12
<file_photo>\r\nT@@ 12
?!?@@ 12
???? 12
?\nEl@@ 12
?\nGeorge: 12
?\nJessica: 12
?\nLucas: 12
?\nSamantha: 12
?\nSean: 12
?\nSophie: 12
?\nTeddy: 12
?\nToby: 12
?\r\nAiden: 12
?\r\nAllan: 12
?\r\nAngelica: 12
?\r\nAustin: 12
?\r\nCathy: 12
?\r\nCecil: 12
?\r\nChandler: 12
?\r\nCheryl: 12
?\r\nClaudia: 12
?\r\nDarcy: 12
?\r\nDenise: 12
?\r\nEllis: 12
?\r\nGavin: 12
?\r\nGis@@ 12
?\r\nGloria: 12
?\r\nGrant: 12
?\r\nJan: 12
?\r\nJan@@ 12
?\r\nJanette: 12
?\r\nJeffrey: 12
?\r\nKai: 12
?\r\nKarl: 12
?\r\nKathy: 12
?\r\nLia: 12
?\r\nMat@@ 12
?\r\nMum: 12
?\r\nPat@@ 12
?\r\nSabrina: 12
?\r\nShirley: 12
?\r\nSusie: 12
?\r\nTroy: 12
?\r\nVanessa: 12
?\r\nWanda: 12
?\r\nZara: 12
Abby 12
Africa@@ 12
Ah! 12
Alexa 12
Alway@@ 12
Aly@@ 12
Amand@@ 12
Amazing! 12
America@@ 12
Amy, 12
Amy@@ 12
Anette 12
Anton 12
Auntie 12
B. 12
BE 12
Back@@ 12
Barcelon@@ 12
Beast@@ 12
Believe 12
Ben. 12
Beyonce 12
Bible 12
Bill@@ 12
Billy 12
Both@@ 12
Bran@@ 12
Brand@@ 12
Break@@ 12
Brussels 12
CR@@ 12
Cafe 12
Call@@ 12
Camil@@ 12
Carla 12
Catherine 12
Champ@@ 12
Charli@@ 12
Charlie's 12
Chet: 12
Chil@@ 12
Chris. 12
Claude: 12
Club@@ 12
Coffee@@ 12
Collins 12
Connie 12
Crystal 12
D&@@ 12
DDDDDDDD@@ 12
Damian 12
Dave's 12
Dave, 12
December, 12
Dee 12
Denise 12
Dev@@ 12
Dex@@ 12
Done@@ 12
Dora 12
Dublin 12
Dunno. 12
Eas@@ 12
Eddie 12
Eh 12
Eh, 12
Eli 12
Elsa 12
Emp@@ 12
English, 12
Eve, 12
Family 12
Far@@ 12
Fe@@ 12
Flor@@ 12
Florenc@@ 12
Food 12
Fortunately 12
Friends 12
Friends@@ 12
Gina, 12
Glasgo@@ 12
Glen 12
Golden 12
Gone 12
Gr8! 12
Grab 12
Graham 12
HBO 12
Hahaha! 12
Hahahah@@ 12
Hair 12
Harry's 12
Havana 12
Hee@@ 12
Helena 12
Helena: 12
Hey!! 12
Hmm. 12
Hmm.. 12
Hmmm, 12
Honey@@ 12
II@@ 12
Iceland 12
Idk. 12
Indeed, 12
Instead 12
Irma 12
Ivo: 12
JUST 12
Jacob, 12
Janice 12
Jared 12
Jenny, 12
Jess, 12
Jill@@ 12
Joel 12
June, 12
KNOW 12
Kac@@ 12
Kat 12
Kate. 12
Kon@@ 12
Krakow 12
LY 12
Lawrence 12
Layla 12
Lee@@ 12
Lemme 12
Liber@@ 12
Linked@@ 12
Lion 12
Lisa's 12
Lov@@ 12
Luck@@ 12
Mall@@ 12
Malta 12
Mandy's 12
Mark: 12
Matthew, 12
Met@@ 12
Mill@@ 12
Min@@ 12
Montre@@ 12
My@@ 12
Naomi 12
Nat 12
Net@@ 12
Nick's 12
Night@@ 12
Nob@@ 12
Nooo, 12
Nooo@@ 12
Nothing@@ 12
November. 12
Office 12
Ohh 12
Ola: 12
Olive: 12
Ollie: 12
Ooo, 12
Open 12
PLN@@ 12
PS4 12
Papa 12
Paula, 12
Polish@@ 12
Poppy: 12
Portuguese 12
Pot@@ 12
Ralph@@ 12
Richi@@ 12
Ricky 12
Roc@@ 12
Roma 12
Ronald 12
Rosa 12
Rose's 12
Running 12
SU@@ 12
Sabrina 12
Samanth@@ 12
Satur@@ 12
Scotland@@ 12
Secret 12
September 12
September. 12
Shes 12
Shir@@ 12
Shoo@@ 12
Shouldn't 12
Sid 12
Simone 12
Simp@@ 12
Sooo 12
Sorry! 12
Spain, 12
Speak 12
Square 12
St 12
Stef: 12
Steff@@ 12
Stella 12
Studio 12
Susan@@ 12
Sweethe@@ 12
TW@@ 12
Tel@@ 12
Tess@@ 12
They’re 12
Things 12
Thurs 12
Tick@@ 12
Tina, 12
Totally@@ 12
Trans@@ 12
True! 12
Twitter 12
Vera 12
Vin@@ 12
We'd 12
Wee@@ 12
Western 12
Work@@ 12
You’ll 12
[@@ 12
\nAnette: 12
\nAnita: 12
\nArnold: 12
\nAshley: 12
\nBartek: 12
\nBill: 12
\nCamilla: 12
\nCharlotte: 12
\nCornelia: 12
\nEddie: 12
\nEve: 12
\nHan: 12
\nHugo: 12
\nIvy: 12
\nJen: 12
\nJessie: 12
\nKayla: 12
\nKen: 12
\nLilly: 12
\nMagdalene: 12
\nMiriam: 12
\nOliver: 12
\nOr@@ 12
\nPablo: 12
\nRegina: 12
\nRiley: 12
\nRob: 12
\nRoberta: 12
\nTeddy: 12
\nTimothy: 12
\nTrevor: 12
\nTyler: 12
\nZara: 12
\nZoe: 12
\r\nAdele: 12
\r\nAlberto: 12
\r\nAleks: 12
\r\nAlicja: 12
\r\nAllison: 12
\r\nAnabel: 12
\r\nAngel: 12
\r\nBree: 12
\r\nBrennan: 12
\r\nBrigette: 12
\r\nCallum: 12
\r\nCam: 12
\r\nCampbell: 12
\r\nChrist@@ 12
\r\nChristy: 12
\r\nClar@@ 12
\r\nCo@@ 12
\r\nCollin: 12
\r\nCrew: 12
\r\nDebbie: 12
\r\nDeborah: 12
\r\nDelilah: 12
\r\nDenis: 12
\r\nDestiny: 12
\r\nDimitry: 12
\r\nDorian: 12
\r\nDoris: 12
\r\nDouglas: 12
\r\nDrake: 12
\r\nElias: 12
\r\nEmi: 12
\r\nFatima: 12
\r\nFaye: 12
\r\nFelicity: 12
\r\nFernando: 12
\r\nFrannie: 12
\r\nGabe: 12
\r\nGail: 12
\r\nGerry: 12
\r\nGisele: 12
\r\nGracie: 12
\r\nHar@@ 12
\r\nHugo: 12
\r\nIsm@@ 12
\r\nJak@@ 12
\r\nJanette: 12
\r\nJax: 12
\r\nJordyn: 12
\r\nKarla: 12
\r\nKelsie: 12
\r\nKendrick: 12
\r\nLaila: 12
\r\nLeanne: 12
\r\nLuna: 12
\r\nMagnus: 12
\r\nMakayla: 12
\r\nMarina: 12
\r\nMatej: 12
\r\nMatteo: 12
\r\nMeryl: 12
\r\nMonique: 12
\r\nNicki: 12
\r\nNo@@ 12
\r\nNorma: 12
\r\nOli@@ 12
\r\nPen: 12
\r\nPip: 12
\r\nRaf: 12
\r\nRash@@ 12
\r\nRichie: 12
\r\nRuss@@ 12
\r\nSh@@ 12
\r\nShaz: 12
\r\nSierra: 12
\r\nSisi: 12
\r\nStefan: 12
\r\nSzymon: 12
\r\nTrey: 12
\r\nTrisha: 12
\r\nUl@@ 12
\r\nVitor: 12
\r\nVivienne: 12
\r\nWallis: 12
\r\nYasmin: 12
a:@@ 12
aaaaa@@ 12
abitha: 12
abortion 12
absent 12
accounting 12
acks 12
actor@@ 12
advertis@@ 12
afraid. 12
aga: 12
agenda 12
agn@@ 12
ags 12
ahhh 12
aijon: 12
aiola: 12
aisy: 12
albu@@ 12
ald 12
aleb: 12
allow@@ 12
almond 12
ami@@ 12
amil 12
amir: 12
amona: 12
ana. 12
anair 12
ance. 12
anche@@ 12
and... 12
ano: 12
anvi: 12
anymore.", 12
aola: 12
aphne: 12
appears 12
appreci@@ 12
apt 12
aquari@@ 12
ara's 12
ara, 12
ard. 12
ardo 12
aries 12
arrival@@ 12
arryl: 12
ascal: 12
ase 12
asha@@ 12
ask. 12
assho@@ 12
assistant 12
astasia: 12
at? 12
atelyn: 12
ath 12
athan@@ 12
audience 12
aul 12
autumn 12
awrie: 12
ayley: 12
ba: 12
bachel@@ 12
bastard 12
believing 12
benef@@ 12
bers 12
besti@@ 12
better! 12
big, 12
big. 12
bikes 12
birthday! 12
blanket@@ 12
bles@@ 12
bookstore 12
booze@@ 12
bother@@ 12
bottles@@ 12
bour@@ 12
bridge@@ 12
broad@@ 12
brownies 12
buck@@ 12
bump@@ 12
burg@@ 12
burgers 12
bus: 12
butt 12
button 12
button@@ 12
ca: 12
cable 12
camping 12
candles 12
cap 12
care! 12
cc@@ 12
celebration 12
centre, 12
chat. 12
chemistry 12
chic 12
chip@@ 12
cigarette 12
cinema, 12
cked 12
climb 12
clinic 12
closest 12
clothes. 12
clubs 12
cm 12
cock@@ 12
coffe 12
colum@@ 12
come! 12
complained 12
condition. 12
confused@@ 12
congratulate 12
connect 12
const@@ 12
content 12
contin@@ 12
cookies. 12
cooper@@ 12
costumes 12
craving 12
creating 12
creature@@ 12
critical 12
ctavia: 12
ctavio: 12
cu 12
cute. 12
cy 12
d'@@ 12
da's 12
damaged 12
dance@@ 12
darling! 12
dating@@ 12
daughter, 12
delayed@@ 12
departure 12
departure@@ 12
des 12
desk. 12
desperate 12
destination 12
detailed 12
development 12
devil@@ 12
diagno@@ 12
dialogues 12
die. 12
diet. 12
differ@@ 12
different. 12
dining 12
disgust@@ 12
dissert@@ 12
dow 12
drawer 12
dred: 12
driven 12
dy! 12
dying@@ 12
e.g. 12
e?\r\nAl@@ 12
e?\r\nAlex: 12
e?\r\nGeorge: 12
e?\r\nMatt: 12
e?\r\nP@@ 12
ease 12
eather: 12
eatrice: 12
eclan: 12
eco 12
ed... 12
edition 12
effect 12
effectiv@@ 12
egg 12
elegant 12
eling 12
elle's 12
elsey: 12
email, 12
emailed 12
ember 12
employees 12
ence: 12
engaged@@ 12
engine@@ 12
enne 12
enneth 12
ensive 12
enter@@ 12
ential@@ 12
envelop@@ 12
equipment@@ 12
erri: 12
est. 12
ester 12
esting 12
etc 12
eve@@ 12
ever! 12
exactly? 12
exam, 12
expected. 12
extr@@ 12
ey. 12
factory 12
faith 12
fallen 12
farewell 12
fascinating@@ 12
faster@@ 12
faul@@ 12
fianc@@ 12
file_@@ 12
fitness 12
flatter@@ 12
flies@@ 12
flu. 12
food? 12
forecast@@ 12
fought 12
freezing@@ 12
frequ@@ 12
fresh@@ 12
furious 12
fying 12
gad@@ 12
gall@@ 12
gar 12
ges@@ 12
get-together 12
ght@@ 12
gif@@ 12
gig@@ 12
ginger 12
gir@@ 12
grat@@ 12
hair. 12
halfway 12
happen, 12
happened?@@ 12
happens, 12
happy. 12
hard. 12
harm@@ 12
harsh 12
harsh@@ 12
havent@@ 12
having@@ 12
haw@@ 12
heel@@ 12
heels 12
help! 12
heridan: 12
hip@@ 12
hm 12
honestly@@ 12
hopefully@@ 12
hot, 12
however, 12
hrs 12
hut@@ 12
i's 12
iana 12
iaran: 12
ic! 12
icardo: 12
ierra: 12
ieter: 12
iliana: 12
illa 12
illaume: 12
ils 12
imagine, 12
incid@@ 12
included@@ 12
ind 12
ingo: 12
inj@@ 12
inspiration 12
inspired 12
institu@@ 12
interviews 12
introducing 12
invest 12
ion: 12
irsty: 12
ises 12
isha 12
islands 12
it.@@ 12
it.\r\nD@@ 12
it?\r\nAl@@ 12
it?\r\nT@@ 12
it\r\nHenry: 12
it\r\nPeter: 12
itten 12
itz: 12
itz@@ 12
jack 12
jam. 12
kebab 12
ki 12
kidding. 12
kiss 12
kisses 12
kitty 12
knocked 12
knowled@@ 12
lab 12
laid 12
langu@@ 12
lap@@ 12
later? 12
laudia: 12
launch 12
laundr@@ 12
leak@@ 12
lear@@ 12
led, 12
les. 12
lett@@ 12
liana: 12
lig@@ 12
liking 12
line. 12
lipstick 12
lipstick@@ 12
list, 12
liter@@ 12
literature 12
lmao@@ 12
logy 12
look. 12
loria 12
lounge 12
lyna: 12
mac 12
machine@@ 12
machines 12
maid 12
makeup 12
mand@@ 12
marriage@@ 12
med. 12
medium 12
mee@@ 12
meetings@@ 12
membership 12
menu@@ 12
mer: 12
messaging 12
me…@@ 12
milk, 12
mini@@ 12
minute. 12
mmm, 12
mode 12
models 12
mone@@ 12
monster@@ 12
morning? 12
musical 12
my. 12
mysteri@@ 12
nature@@ 12
need? 12
nerd@@ 12
ness. 12
nik 12
nooo@@ 12
notice@@ 12
nowaday@@ 12
np@@ 12
number? 12
nursery 12
o'clock 12
ob 12
ober@@ 12
obias: 12
obin: 12
object@@ 12
odd@@ 12
of. 12
offended 12
offici@@ 12
ohamed: 12
oint@@ 12
ois: 12
olanda: 12
olf: 12
oman: 12
on... 12
ond 12
oni 12
onrad: 12
ook 12
ooo, 12
oop@@ 12
orang@@ 12
orc@@ 12
orett@@ 12
orey: 12
orian: 12
origin@@ 12
orro@@ 12
ort 12
ory, 12
osiah: 12
ost 12
ott@@ 12
ouglas: 12
outfit@@ 12
outfits 12
over? 12
own, 12
park, 12
particularly 12
pel 12
people's 12
pepp@@ 12
perc@@ 12
perf@@ 12
perhaps@@ 12
pes 12
photo, 12
physical 12
pissed@@ 12
place! 12
plane. 12
plates 12
platform@@ 12
play, 12
plea@@ 12
policy 12
polite 12
portion 12
post-@@ 12
potato 12
prayers 12
precisely 12
prescribed 12
present, 12
presenting 12
press@@ 12
pretti@@ 12
prevent 12
printed 12
prob. 12
probs 12
propo@@ 12
prosec@@ 12
protest@@ 12
pump 12
quali@@ 12
questions. 12
queuing 12
rab@@ 12
racist 12
rad 12
rainy 12
raising 12
randma: 12
ravis: 12
react@@ 12
reads 12
reason. 12
recipe. 12
recruit@@ 12
redecor@@ 12
region 12
register 12
registered 12
rehear@@ 12
rej@@ 12
rejected 12
relea@@ 12
released@@ 12
religious 12
remin@@ 12
renc@@ 12
repe@@ 12
repet@@ 12
replying 12
rescue 12
resem@@ 12
resign 12
resort 12
respond@@ 12
ress: 12
reston: 12
results. 12
retired 12
reunion@@ 12
rian: 12
ridicul@@ 12
right?\r\n@@ 12
rim@@ 12
rink 12
rish: 12
ristan: 12
road. 12
romantic@@ 12
rubbish 12
rugby 12
s.\r\nA@@ 12
s.\r\nAn@@ 12
s.\r\nL@@ 12
sa 12
sale@@ 12
scale 12
scam@@ 12
school? 12
sci-fi 12
scratch@@ 12
screwed 12
secon@@ 12
semi@@ 12
separate 12
sever@@ 12
shake 12
shame, 12
shipped 12
shocked@@ 12
shorter 12
shton: 12
shut@@ 12
sim@@ 12
sion, 12
situ@@ 12
sized 12
skate@@ 12
slice 12
slip 12
soldi@@ 12
somewher@@ 12
sons 12
sorts 12
spaghetti@@ 12
spee@@ 12
spice 12
spo@@ 12
spon@@ 12
spray 12
srs@@ 12
stairs 12
standard 12
statement 12
steam 12
strange, 12
strat@@ 12
strongly 12
stuck@@ 12
students, 12
studies@@ 12
stun@@ 12
submitted 12
success 12
sugar, 12
suggestion 12
suicid@@ 12
sunday@@ 12
sunn@@ 12
supportive 12
susp@@ 12
sweater@@ 12
sweety 12
sym@@ 12
tasted 12
tasty@@ 12
tattoo@@ 12
te: 12
team, 12
tech 12
teenage 12
tensi@@ 12
tent 12
terror@@ 12
then.", 12
there.\r\nM@@ 12
there?@@ 12
they? 12
this: 12
ths 12
thur 12
tied 12
tire@@ 12
tive. 12
tmrw@@ 12
ton's 12
ton. 12
too...@@ 12
touch. 12
toy 12
toys 12
trade 12
trainer 12
tran@@ 12
transf@@ 12
tural 12
twist@@ 12
u! 12
ump 12
unavailable 12
university, 12
university. 12
unpleasant 12
urora: 12
urt 12
uss: 12
uuuuuuuu@@ 12
var@@ 12
vari@@ 12
vis: 12
visa 12
visible 12
vision 12
wa: 12
wants@@ 12
wardro@@ 12
warned 12
wasted@@ 12
wasting 12
way? 12
wea@@ 12
weak@@ 12
weekend! 12
weight. 12
welcome, 12
whaaat@@ 12
wheel@@ 12
whin@@ 12
who’s 12
wif@@ 12
wight: 12
window. 12
wings 12
winner 12
winter, 12
wood@@ 12
world, 12
worrying 12
worth@@ 12
yeah.. 12
yes!! 12
yes... 12
yesterday? 12
yn 12
you?\r\nG@@ 12
you…@@ 12
yril: 12
za 12
zzy 12
zzy: 12
zzzz@@ 12
☹️@@ 12
☺️ 12
@@ 12
Ｔ@@ 12
👍 12
🔥@@ 12
😔😔@@ 12
😰@@ 12
😱😱@@ 12
😲@@ 12
🙃@@ 12
🤷@@ 12
!!!\r\nJ@@ 11
!\r\nAmber: 11
!\r\nAndrea: 11
!\r\nArnold: 11
!\r\nBecky: 11
!\r\nBrandon: 11
!\r\nBret: 11
!\r\nBryce: 11
!\r\nCarter: 11
!\r\nDon: 11
!\r\nDora: 11
!\r\nDylan: 11
!\r\nElisabeth: 11
!\r\nEzra: 11
!\r\nLenny: 11
!\r\nNora: 11
!\r\nPatrick: 11
!\r\nRegina: 11
!\r\nSandy: 11
!\r\nSharon: 11
!\r\nSt@@ 11
!\r\nSylvia: 11
!\r\nVeronica: 11
!\r\nVince: 11
!\r\nWalter: 11
"Adrian: 11
"Alexander 11
"Alison: 11
"Anita: 11
"Bart: 11
"Carrie: 11
"Catherine: 11
"Clara: 11
"Donald 11
"Elisabeth: 11
"Every@@ 11
"Gabriel: 11
"Harvey: 11
"Howard: 11
"Jessie: 11
"Jo: 11
"June: 11
"Katie: 11
"Lara: 11
"Last 11
"Maddie: 11
"Madison: 11
"Mum 11
"Nate: 11
"Paulina: 11
"Poppy: 11
"Riley: 11
"Roger: 11
"Rory: 11
"Rox@@ 11
"Stanley: 11
"Suzie: 11
"Teresa: 11
"Trevor: 11
(´@@ 11
...\r\nDave: 11
...\r\nGreg: 11
...\r\nH@@ 11
...\r\nMel: 11
...\r\nPaul: 11
...\r\nSam: 11
...\r\nSandra: 11
.\nDaniel: 11
.\nJohn: 11
.\r\nBarb: 11
.\r\nBlake: 11
.\r\nBoris: 11
.\r\nBrandon: 11
.\r\nBryan: 11
.\r\nCarrie: 11
.\r\nChristine: 11
.\r\nDaki: 11
.\r\nDanielle: 11
.\r\nDylan: 11
.\r\nEdna: 11
.\r\nGabriel: 11
.\r\nGill: 11
.\r\nHar@@ 11
.\r\nIsabella: 11
.\r\nIsla: 11
.\r\nIvy: 11
.\r\nJanet: 11
.\r\nJasna: 11
.\r\nJeremy: 11
.\r\nJimmy: 11
.\r\nKristel: 11
.\r\nLeon: 11
.\r\nLeslie: 11
.\r\nLydia: 11
.\r\nMillie: 11
.\r\nMiranda: 11
.\r\nNaomi: 11
.\r\nOlivier: 11
.\r\nPearl: 11
.\r\nPhoebe: 11
.\r\nSebastian: 11
.\r\nShawn: 11
.\r\nTabby: 11
.\r\nTeddy: 11
.\r\nThekla: 11
.\r\nTyre: 11
.\r\nValent@@ 11
10am@@ 11
15. 11
180 11
1990@@ 11
2,@@ 11
20-@@ 11
2000@@ 11
3D 11
40. 11
4:30 11
800 11
8pm. 11
90s 11
9th 11
:)\r\nAlex: 11
:)\r\nDiana: 11
:)\r\nEmily: 11
:)\r\nGreg: 11
:)\r\nMartha: 11
:)\r\nMonica: 11
:-)\r\nWill: 11
:-P@@ 11
:15. 11
:D\r\nAdam: 11
:D\r\nAlice: 11
:D\r\nJessica: 11
:D\r\nLaura: 11
:D\r\nLucas: 11
:D\r\nMary: 11
:D\r\nRachel: 11
;)\r\nJake: 11
;)\r\nSue: 11
;/ 11
<file_image> 11
<file_other>, 11
<file_photo>\r\nJulia: 11
<file_photo>\r\nMartha: 11
<file_photo>\r\nSophia: 11
?!?! 11
?:D@@ 11
??!@@ 11
??\r\nL@@ 11
?\nAndrew: 11
?\nDan: 11
?\nElla: 11
?\nFrank: 11
?\nRobert: 11
?\nSimon: 11
?\nTina: 11
?\r\nAlbert: 11
?\r\nAm@@ 11
?\r\nArchie: 11
?\r\nArnold: 11
?\r\nBrandon: 11
?\r\nCameron: 11
?\r\nCarlos: 11
?\r\nChad: 11
?\r\nDale: 11
?\r\nDar@@ 11
?\r\nDorian: 11
?\r\nDoug: 11
?\r\nDrew: 11
?\r\nEleanor: 11
?\r\nElijah: 11
?\r\nFinn: 11
?\r\nGregory: 11
?\r\nHanna: 11
?\r\nHugo: 11
?\r\nJackson: 11
?\r\nJasna: 11
?\r\nJenna: 11
?\r\nJonah: 11
?\r\nJonathan: 11
?\r\nJose: 11
?\r\nLeon: 11
?\r\nMaddie: 11
?\r\nMarge: 11
?\r\nMario: 11
?\r\nNicholas: 11
?\r\nOtto: 11
?\r\nPayton: 11
?\r\nRicky: 11
?\r\nRonald: 11
?\r\nShelly: 11
?\r\nTheresa: 11
?\r\nV@@ 11
AB@@ 11
ASAP 11
Absolutely! 11
Afraid 11
Alicia 11
Alon@@ 11
Amazon@@ 11
Anab@@ 11
And, 11
Andy's 11
Andy. 11
Annick: 11
Arabic 11
Argent@@ 11
Art 11
Aud@@ 11
Audre@@ 11
Az@@ 11
Babe 11
Baby 11
Bath 11
Beatles 11
Belgian 11
Belgium@@ 11
Berlin. 11
Bob, 11
Bobby 11
Bos@@ 11
Boxing 11
Breaking 11
Brian: 11
Brilli@@ 11
Broo@@ 11
Brook@@ 11
Brown@@ 11
COM@@ 11
Cambridge@@ 11
Canadian 11
Carlos: 11
Carly 11
Carson 11
Charliz@@ 11
Chicken 11
Chuck: 11
Church 11
Club 11
Cob@@ 11
Colle@@ 11
Colum@@ 11
Congrats! 11
Const@@ 11
Cornelia: 11
Coun@@ 11
Course, 11
Cy@@ 11
DIY 11
DON@@ 11
Dal@@ 11
Dami@@ 11
Danielle 11
Dead 11
Debbie 11
Def@@ 11
Dick@@ 11
Direc@@ 11
Donald: 11
Ear@@ 11
Earth 11
Easter@@ 11
Elis@@ 11
Em, 11
Emily@@ 11
England@@ 11
Eric, 11
Eve.", 11
Ever 11
Fancy 11
Feeling 11
Find 11
Fine! 11
First, 11
Fl@@ 11
Forgot 11
France. 11
Frank's 11
Gabriel: 11
Gary@@ 11
Gavin 11
Geez. 11
Gen@@ 11
Georgia 11
Girl 11
Gr8 11
H&@@ 11
HAPPY 11
Hahah, 11
Haile@@ 11
Haiti@@ 11
Henry's 11
Hotel 11
However 11
Hur@@ 11
IKEA@@ 11
ILL 11
Ian's 11
Iceland@@ 11
Idk, 11
Ik@@ 11
Ingrid 11
Ira@@ 11
Isaiah: 11
Jack. 11
January, 11
Jeff's 11
Jen, 11
Jenna 11
Jerem@@ 11
Jones 11
K. 11
Kai@@ 11
Kamil 11
Kayla 11
Kei@@ 11
Krak@@ 11
Kris 11
Kristen 11
L, 11
LE@@ 11
Laos 11
Lea: 11
Leave 11
Lex@@ 11
Lora 11
Lou 11
Luca 11
MacBook 11
Madrid@@ 11
Maggie, 11
Marian 11
Martin@@ 11
Marv@@ 11
Mauritius 11
Max's 11
Me? 11
Megan's 11
Melissa@@ 11
Merid@@ 11
Michel@@ 11
Mickey 11
Mila 11
Mind@@ 11
Miriam 11
Mom. 11
Monika: 11
Mont@@ 11
Morn@@ 11
Mum's 11
NYC 11
Nanc@@ 11
Nelly 11
Ni@@ 11
Niag@@ 11
Nicholas 11
Nicol@@ 11
Nig@@ 11
Norman 11
Note 11
OUT 11
Ooooo@@ 11
Other@@ 11
Outlander 11
PR 11
Pakist@@ 11
Party 11
Past@@ 11
Patrick@@ 11
President 11
Project 11
Pub 11
R.@@ 11
Rachel's 11
Ready 11
Ree@@ 11
Regina 11
Rel@@ 11
Relax@@ 11
Rick: 11
River@@ 11
Road, 11
Robert, 11
Rog@@ 11
Ronnie 11
Ross@@ 11
Rus@@ 11
Russell 11
Ruth, 11
SS@@ 11
Sam. 11
Samantha, 11
San@@ 11
Sara, 11
Scr@@ 11
See@@ 11
Seriously? 11
Shayla 11
Shoot@@ 11
Simon, 11
Sis@@ 11
Smart 11
Soci@@ 11
Sol@@ 11
Spencer: 11
Spice 11
Spr@@ 11
Stac@@ 11
Stranger 11
Sweet, 11
TV, 11
Tamara 11
Thank@@ 11
That@@ 11
Theres 11
Tonight 11
Tony, 11
Tori 11
Toron@@ 11
Tou@@ 11
Trin@@ 11
Trudy 11
Turns 11
Tw@@ 11
Uber@@ 11
Ukraine 11
Up@@ 11
Usu@@ 11
VE 11
Vienna 11
Vietnam@@ 11
WE 11
WOR@@ 11
Was@@ 11
Way 11
Wayne 11
Wer@@ 11
We’ve 11
WhatsApp@@ 11
Where? 11
Why?@@ 11
Wild 11
Willie: 11
Witcher 11
Without 11
Wojtek: 11
Wolf 11
Wr@@ 11
Wyatt: 11
YO@@ 11
Years 11
Year’s 11
Yep 11
Zara: 11
Zoe's 11
\nAbe: 11
\nAmelia: 11
\nCarol: 11
\nDiane: 11
\nFloss: 11
\nFranc@@ 11
\nFredrik: 11
\nKar@@ 11
\nKathy: 11
\nKatie: 11
\nKian: 11
\nLayla: 11
\nLenny: 11
\nLeslie: 11
\nLouis: 11
\nMarek: 11
\nMargot: 11
\nMelissa: 11
\nMichaela: 11
\nMichal: 11
\nMitch: 11
\nNaffy: 11
\nRachel: 11
\nRomy: 11
\nRosemary: 11
\nSharon: 11
\nShawn: 11
\nTheo: 11
\nTomek: 11
\nUrsula: 11
\r\nAldona: 11
\r\nAlfonso: 11
\r\nAllyn: 11
\r\nAlonso: 11
\r\nAly@@ 11
\r\nAmka: 11
\r\nAriel: 11
\r\nAudrianna: 11
\r\nAveri: 11
\r\nBeatriz: 11
\r\nBo: 11
\r\nBrid@@ 11
\r\nBrooklynn: 11
\r\nCec@@ 11
\r\nChar@@ 11
\r\nClementine: 11
\r\nColby: 11
\r\nCory: 11
\r\nCris: 11
\r\nDar@@ 11
\r\nDavon: 11
\r\nDolly: 11
\r\nDonte: 11
\r\nDottie: 11
\r\nDustin: 11
\r\nEleonore: 11
\r\nElise: 11
\r\nEster: 11
\r\nFabio: 11
\r\nFernandez: 11
\r\nFleur: 11
\r\nFlo: 11
\r\nGillian: 11
\r\nGordon: 11
\r\nGraham: 11
\r\nHallie: 11
\r\nHarriett: 11
\r\nIggy: 11
\r\nIrwin: 11
\r\nIsa: 11
\r\nJay@@ 11
\r\nJaz@@ 11
\r\nJensen: 11
\r\nKarissa: 11
\r\nKelsey: 11
\r\nKerri: 11
\r\nLilian: 11
\r\nLore: 11
\r\nLuk@@ 11
\r\nMackenzie: 11
\r\nMag: 11
\r\nMaja: 11
\r\nMarc@@ 11
\r\nMarry: 11
\r\nMeghan: 11
\r\nMemphis: 11
\r\nMi@@ 11
\r\nMicah: 11
\r\nMilo: 11
\r\nMiya: 11
\r\nNicolas: 11
\r\nNikita: 11
\r\nOrion: 11
\r\nPierce: 11
\r\nPriscilla: 11
\r\nRafael: 11
\r\nRaoul: 11
\r\nRebekah: 11
\r\nReyna: 11
\r\nSang: 11
\r\nSkye: 11
\r\nSpud: 11
\r\nSteve 11
\r\nSusanne: 11
\r\nTal@@ 11
\r\nUlla: 11
\r\nZac: 11
^_^@@ 11
a" 11
a.. 11
abi@@ 11
ability@@ 11
abio: 11
ablo 11
ablo: 11
absolut@@ 11
acca: 11
accommod@@ 11
account, 11
aches 11
acl@@ 11
adi@@ 11
adjust@@ 11
admitted 11
adorable 11
advance. 11
affair@@ 11
afford@@ 11
agenc@@ 11
ah... 11
akako: 11
akayla: 11
aki 11
akota 11
al? 11
ale@@ 11
allergies 11
along. 11
always, 11
ambulance 11
anca 11
andeep: 11
annoy@@ 11
answer. 11
anything.", 11
aoul: 11
appreciated@@ 11
approaching 11
aquel: 11
ar\n@@ 11
ara. 11
arb@@ 11
architecture@@ 11
area, 11
ared 11
arms 11
arrivals 11
arrived, 11
arse@@ 11
arti@@ 11
article. 11
ary's 11
aside 11
assess@@ 11
assidy: 11
atal@@ 11
atelin: 11
athryn: 11
atie: 11
atm 11
atm@@ 11
ato@@ 11
aton 11
att: 11
attracted 11
ature@@ 11
aut@@ 11
autom@@ 11
aven: 11
aver@@ 11
awake 11
away! 11
awe@@ 11
aws 11
ayson: 11
babe! 11
bakery 11
balcony 11
basket 11
bean 11
been? 11
behalf 11
belina: 11
berg@@ 11
beside 11
blast 11
ble, 11
blind@@ 11
blow 11
board, 11
board. 11
boards 11
bomb 11
bosses 11
bother, 11
bothers 11
bow 11
boxes@@ 11
bra@@ 11
breakfast, 11
buddy 11
buddy, 11
buil@@ 11
buying@@ 11
by? 11
cabb@@ 11
café 11
calls@@ 11
cancell@@ 11
candid@@ 11
cant@@ 11
car's 11
cards@@ 11
carro@@ 11
cater@@ 11
caught@@ 11
causing 11
celebrate@@ 11
cerem@@ 11
ch: 11
chapters 11
charges 11
cheese, 11
chilly 11
choices@@ 11
chores@@ 11
chr@@ 11
cigarett@@ 11
cks 11
claim 11
clar@@ 11
clever 11
client. 11
clinic@@ 11
closer@@ 11
cloth 11
clothing 11
cocktail 11
cocktail@@ 11
cocoa 11
comb@@ 11
comfor@@ 11
comin 11
commut@@ 11
commute 11
compar@@ 11
conditions 11
congrats@@ 11
consci@@ 11
convinces 11
cooking, 11
cooking. 11
coping@@ 11
countryside 11
couples 11
court@@ 11
cousin's 11
crap, 11
crisis 11
crisp@@ 11
curren@@ 11
cutest 11
dad! 11
damage@@ 11
dang@@ 11
deciding 11
decision, 11
decoration@@ 11
definitely, 11
definition 11
demands 11
depos@@ 11
described 11
devast@@ 11
developed 11
dia 11
dil@@ 11
disappeared@@ 11
disco@@ 11
discover 11
dissap@@ 11
dissatisfied 11
documents@@ 11
dogs@@ 11
down! 11
dramatic 11
drink. 11
drunk, 11
dur@@ 11
dy's 11
dy. 11
dyed 11
e.\r\nJack: 11
e.\r\nJane: 11
e.\r\nMom: 11
e?\r\nH@@ 11
e?\r\nLisa: 11
eacon: 11
eadar: 11
eah: 11
earrings 11
easier. 11
ebbie: 11
economic 11
ecting 11
eel@@ 11
eg 11
eh 11
eith: 11
el.", 11
elabor@@ 11
elev@@ 11
ella, 11
elson: 11
ember@@ 11
embro@@ 11
emi 11
enata: 11
energy 11
engage 11
engagement 11
enne: 11
enni: 11
enny, 11
entering 11
entertain 11
entley: 11
enton: 11
envious@@ 11
eo 11
ept@@ 11
err@@ 11
ert: 11
esa 11
escap@@ 11
esley 11
essays 11
est: 11
estab@@ 11
esti@@ 11
ette, 11
ettina: 11
etty 11
ety@@ 11
eva: 11
everything! 11
everywhere. 11
evil@@ 11
eville: 11
examples 11
excellent@@ 11
exciting. 11
exec@@ 11
exotic 11
experience. 11
failed@@ 11
false 11
fam@@ 11
fancy@@ 11
fast. 11
favourite@@ 11
feed@@ 11
fees 11
fifth 11
finale 11
fine.", 11
flash@@ 11
flight, 11
flir@@ 11
flow@@ 11
flying@@ 11
fo 11
folder@@ 11
follows 11
fortune@@ 11
four@@ 11
fran@@ 11
frankly 11
ft 11
ful! 11
fuss 11
gate@@ 11
gen 11
geography 11
ges 11
gest@@ 11
ggling 11
gift, 11
girlfriend's 11
gle 11
glitter@@ 11
gone. 11
good? 11
goodness 11
gorgeous, 11
government@@ 11
gr8 11
grandpa 11
granny 11
grant 11
graphics 11
gross 11
gross@@ 11
hand. 11
happened??@@ 11
happens. 11
he? 11
heard. 11
heater 11
helps@@ 11
hem@@ 11
hemian 11
herb@@ 11
herbs 11
heresa 11
herself, 11
hint@@ 11
hit@@ 11
hiya 11
hold@@ 11
hometown 11
horse 11
hospit@@ 11
hosting 11
hour? 11
hous@@ 11
house? 11
household 11
iam: 11
ias: 11
ic's 11
ical, 11
ician 11
ida: 11
iddy: 11
ideas. 11
ider 11
ieran: 11
iet: 11
iffer: 11
ific@@ 11
ilo: 11
image 11
imona: 11
in-@@ 11
in-law@@ 11
inbox@@ 11
incredibly 11
indi@@ 11
indsay: 11
iness 11
influ@@ 11
ing-@@ 11
inner 11
ins, 11
instructor@@ 11
interesting! 11
internet, 11
intim@@ 11
investigate 11
ions@@ 11
ire@@ 11
ired 11
issues, 11
it!!\r\n@@ 11
it?\r\nMike: 11
it?\r\nTom: 11
it\nR@@ 11
it\r\nAlex: 11
it\r\nJoe: 11
itty 11
i’d 11
j: 11
jake 11
jee@@ 11
jewel@@ 11
jewelry 11
jo: 11
job! 11
joy@@ 11
just… 11
ken 11
key. 11
kinds 11
kira: 11
kissed 11
kisses@@ 11
kitchen. 11
know!! 11
know...\r\n@@ 11
lac@@ 11
lan 11
lasted 11
laughed 11
leading 11
leaf@@ 11
legs@@ 11
len@@ 11
lian: 11
lisabeth: 11
lives. 11
lle: 11
loan 11
location. 11
lonely@@ 11
loser@@ 11
luggage@@ 11
machine. 11
magic 11
magical 11
main@@ 11
man: 11
manic@@ 11
maps 11
march@@ 11
marijuana 11
mas 11
max@@ 11
maybe. 11
mechanic 11
meet.", 11
mencita: 11
mic@@ 11
micro@@ 11
milk. 11
mirror@@ 11
mission@@ 11
mistakes@@ 11
misunderstand@@ 11
mob@@ 11
moment.", 11
mood. 11
moon 11
mr 11
much? 11
mums 11
naked 11
narr@@ 11
nature 11
negotiate 11
neighbour's 11
ney, 11
nice.\r\n@@ 11
night's 11
no.@@ 11
nobody's 11
noo 11
noon, 11
noti@@ 11
nowadays 11
nuts@@ 11
obliged 11
observe 11
occup@@ 11
odger: 11
ofc, 11
offers@@ 11
often, 11
oh. 11
ok,@@ 11
ok... 11
ok?\r\n@@ 11
okey 11
okey, 11
old-fashioned 11
olina: 11
onic@@ 11
ony: 11
oo, 11
oom 11
oooh 11
op 11
opens 11
opportunities 11
order. 11
oth@@ 11
other, 11
ouse@@ 11
owner@@ 11
oy 11
panc@@ 11
pant@@ 11
parro@@ 11
pav@@ 11
pe. 11
peace@@ 11
penc@@ 11
pens 11
per, 11
perhap@@ 11
perspec@@ 11
pharmacy 11
pharmacy@@ 11
philosoph@@ 11
photo. 11
phys@@ 11
physics 11
pics. 11
pig 11
ping 11
places. 11
plans. 11
pleas@@ 11
pleasee@@ 11
pless 11
pointless 11
poison@@ 11
popcorn 11
potatoes@@ 11
practically 11
preferably 11
presentations 11
pretty, 11
publish@@ 11
pulling 11
queen@@ 11
quicker 11
raco: 11
radical 11
radio@@ 11
rais@@ 11
reason, 11
recommended@@ 11
referendum@@ 11
region@@ 11
registration 11
regret@@ 11
reha@@ 11
relax. 11
remeber 11
remember? 11
ren 11
rene: 11
rental 11
requests 11
required 11
requires 11
resourc@@ 11
responsibility 11
responsibility@@ 11
ret: 11
reun@@ 11
rights 11
rma: 11
rody: 11
rose 11
rou@@ 11
royal 11
ruining 11
run. 11
rupt 11
s-@@ 11
s.\r\nH@@ 11
s?\r\nJohn: 11
s\r\nTom: 11
safely@@ 11
sak@@ 11
sandwiches 11
satur@@ 11
scholar@@ 11
scored 11
scrat@@ 11
seats@@ 11
sec. 11
send@@ 11
serious! 11
services 11
setting@@ 11
shame. 11
sharp@@ 11
shed@@ 11
shee@@ 11
shirt. 11
shoes, 11
shower. 11
sig@@ 11
silly! 11
silly, 11
sisters 11
situation, 11
skirt@@ 11
sle@@ 11
slot 11
smash@@ 11
smil@@ 11
smiling 11
smooth 11
smu@@ 11
society 11
software 11
some, 11
somehow, 11
someone, 11
song. 11
sorting 11
spam@@ 11
spectacular@@ 11
spid@@ 11
spray@@ 11
srsly@@ 11
stable 11
stain 11
stall@@ 11
stam@@ 11
starving 11
statist@@ 11
status 11
stay. 11
story. 11
stress, 11
strict 11
stroll@@ 11
stubborn 11
stud@@ 11
subm@@ 11
subur@@ 11
sucks! 11
suff@@ 11
suffering 11
sum 11
sum@@ 11
supervisor@@ 11
supply 11
sure... 11
survey 11
sus@@ 11
swe@@ 11
sweat 11
sweetheart 11
taking@@ 11
talking. 11
tattoo 11
tea, 11
termin@@ 11
ters, 11
theatre. 11
thel: 11
ther\n@@ 11
there?\r\nS@@ 11
thony: 11
thou@@ 11
time?\r\nD@@ 11
time?\r\nS@@ 11
tions, 11
tions. 11
tip 11
today?\n@@ 11
together\n@@ 11
tonight! 11
tonit@@ 11
trag@@ 11
travelling@@ 11
treats 11
tt 11
turo: 11
turt@@ 11
tutor 11
tv, 11
twit@@ 11
ty: 11
ucker: 11
ugh, 11
ulian: 11
um: 11
umber 11
umbrell@@ 11
un: 11
una 11
unbelievable 11
understands 11
univer@@ 11
upset. 11
upstair@@ 11
urek: 11
user 11
usten: 11
utter 11
v, 11
variety 11
vi 11
voc@@ 11
vocabulary 11
volleyball 11
vs 11
waiters 11
wasn't@@ 11
water. 11
wearing@@ 11
websites 11
welcome! 11
western 11
whatsapp@@ 11
whatso@@ 11
wherever 11
wide 11
wife, 11
win, 11
windy 11
wing 11
winn@@ 11
wishes@@ 11
wondering, 11
working.", 11
worried, 11
writing@@ 11
ww@@ 11
xton: 11
y'@@ 11
yh@@ 11
ynda: 11
yo, 11
yoghurt 11
you!\r\nD@@ 11
you?\r\nT@@ 11
you\r\nM@@ 11
yours, 11
you’d 11
yric: 11
yrs 11
yup 11
zing 11
zlot@@ 11
zombi@@ 11
zymon: 11
ł 11
‑@@ 11
’t. 11
┌@@ 11
☀@@ 11
❤️❤️@@ 11
ヽ(´@@ 11
；@@ 11
＼(@@ 11
･@@ 11
👍👍@@ 11
😁 11
😂😂😂 11
🤪@@ 11
!!!\r\nG@@ 10
!\nDaniel: 10
!\nTim: 10
!\nTom: 10
!\r\nAaron: 10
!\r\nBella: 10
!\r\nBenjamin: 10
!\r\nBrad: 10
!\r\nCatherine: 10
!\r\nCharlotte: 10
!\r\nCindy: 10
!\r\nClare: 10
!\r\nDiane: 10
!\r\nEsme: 10
!\r\nGeorgia: 10
!\r\nGis@@ 10
!\r\nHolly: 10
!\r\nJess: 10
!\r\nKai: 10
!\r\nKira: 10
!\r\nMickey: 10
!\r\nNathan: 10
!\r\nPhilip: 10
!\r\nRe@@ 10
!\r\nRichard: 10
!\r\nRoger: 10
!\r\nShelly: 10
!\r\nSuzie: 10
!\r\nY@@ 10
"Abby: 10
"Andre@@ 10
"Bart 10
"Billy: 10
"Brad@@ 10
"Caleb: 10
"Daria: 10
"Dylan: 10
"Elijah: 10
"Harper: 10
"Joshua: 10
"Jude: 10
"Kai: 10
"Lindsay: 10
"Luna: 10
"Mike's 10
"Miles 10
"Miranda: 10
"Natasha: 10
"Pamela 10
"Tamara: 10
"Willow: 10
"Zack: 10
"a 10
$100 10
'C@@ 10
'S 10
't, 10
***@@ 10
.(@@ 10
...\r\nDavid: 10
...\r\nEmily: 10
...\r\nFrank: 10
...\r\nMat@@ 10
.S@@ 10
.\nHelen: 10
.\r\nA: 10
.\r\nAb@@ 10
.\r\nAng@@ 10
.\r\nBenjamin: 10
.\r\nBessy: 10
.\r\nBrendon: 10
.\r\nBrett: 10
.\r\nCarl: 10
.\r\nClara: 10
.\r\nDean: 10
.\r\nDieter: 10
.\r\nElijah: 10
.\r\nFair: 10
.\r\nFloyd: 10
.\r\nFranklin: 10
.\r\nGaby: 10
.\r\nGregory: 10
.\r\nHilary: 10
.\r\nJonathan: 10
.\r\nJudith: 10
.\r\nKeith: 10
.\r\nLawrie: 10
.\r\nLynn: 10
.\r\nMatthew: 10
.\r\nMr 10
.\r\nPoppy: 10
.\r\nRicky: 10
.\r\nRosa: 10
.\r\nShelly: 10
.\r\nStacey: 10
.\r\nTessa: 10
.\r\nTessy: 10
.\r\nToby: 10
.\r\nTodd: 10
.\r\nVincent: 10
00. 10
1.5 10
10am 10
11am@@ 10
12, 10
12:30@@ 10
15min@@ 10
16th 10
17th 10
1h 10
20, 10
20. 10
21st@@ 10
24th 10
27th 10
4.30 10
5:30 10
6/@@ 10
7am 10
7pm. 10
8.30 10
:(\r\nKate: 10
:(\r\nMike: 10
:). 10
:)\r\nJake: 10
:)\r\nJim: 10
:)\r\nMary: 10
:)\r\nMax: 10
:)\r\nMichael: 10
:)\r\nMom: 10
:-/ 10
:D\r\nAlex: 10
:D\r\nFrank: 10
:D\r\nJimmy: 10
:D\r\nJosh: 10
:D\r\nL@@ 10
:D\r\nLuke: 10
:D\r\nVictoria: 10
:P\r\nMark: 10
:d 10
;)\r\nMark: 10
;)\r\nTom: 10
;-@@ 10
<file_other>. 10
<file_others>@@ 10
<file_picture>\r\nJessie: 10
?!\r\nNicky: 10
?\nAdam: 10
?\nAr@@ 10
?\nJacob: 10
?\nJane: 10
?\nLia: 10
?\nMia: 10
?\nNancy: 10
?\nPaula: 10
?\nSylvia: 10
?\nTony: 10
?\nY@@ 10
?\r\nAngelina: 10
?\r\nAnton: 10
?\r\nBer@@ 10
?\r\nBert: 10
?\r\nBilly: 10
?\r\nBr@@ 10
?\r\nBruno: 10
?\r\nBryan: 10
?\r\nCarter: 10
?\r\nConrad: 10
?\r\nDaria: 10
?\r\nDarren: 10
?\r\nDaryl: 10
?\r\nDina: 10
?\r\nEmm@@ 10
?\r\nFilip: 10
?\r\nFranklin: 10
?\r\nGlen: 10
?\r\nGraham: 10
?\r\nGuy: 10
?\r\nHarvey: 10
?\r\nHeidi: 10
?\r\nJared: 10
?\r\nJon: 10
?\r\nJuly: 10
?\r\nKira: 10
?\r\nLora: 10
?\r\nLori: 10
?\r\nLydia: 10
?\r\nMartina: 10
?\r\nMaxine: 10
?\r\nMeghan: 10
?\r\nMel@@ 10
?\r\nMiles: 10
?\r\nMorgan: 10
?\r\nNatty: 10
?\r\nNelly: 10
?\r\nNo@@ 10
?\r\nNoel: 10
?\r\nOlga: 10
?\r\nPiyush: 10
?\r\nRich: 10
?\r\nScarlett: 10
?\r\nShane: 10
?\r\nStacey: 10
?\r\nSuzanne: 10
?\r\nTeddy: 10
?\r\nTori: 10
@gmail.com@@ 10
AD@@ 10
ASAP. 10
Aa@@ 10
Abigail: 10
Abigail@@ 10
Absolutely@@ 10
Act@@ 10
Adelaide: 10
Af@@ 10
African 10
Aga 10
Again? 10
Albani@@ 10
Alexand@@ 10
Allie 10
Almost@@ 10
Alright. 10
Amanda, 10
Andrew, 10
Android 10
Annabelle: 10
Anton@@ 10
Auckland: 10
Australia 10
Austria 10
Aw 10
Awww 10
B-) 10
Baltic 10
[...]
